#include "model.h"

// Keep model aligned to 8 bytes to guarantee aligned 64-bit accesses.
alignas(8) const unsigned char g_model[] = {
  0x20, 0x00, 0x00, 0x00, 0x54, 0x46, 0x4c, 0x33, 0x00, 0x00, 0x00, 0x00,
  0x14, 0x00, 0x20, 0x00, 0x1c, 0x00, 0x18, 0x00, 0x14, 0x00, 0x10, 0x00,
  0x0c, 0x00, 0x00, 0x00, 0x08, 0x00, 0x04, 0x00, 0x14, 0x00, 0x00, 0x00,
  0x1c, 0x00, 0x00, 0x00, 0x98, 0x00, 0x00, 0x00, 0xc8, 0x00, 0x00, 0x00,
  0x84, 0x0a, 0x00, 0x00, 0x94, 0x0a, 0x00, 0x00, 0x24, 0x27, 0x00, 0x00,
  0x03, 0x00, 0x00, 0x00, 0x01, 0x00, 0x00, 0x00, 0x10, 0x00, 0x00, 0x00,
  0x0c, 0x00, 0x14, 0x00, 0x10, 0x00, 0x0c, 0x00, 0x08, 0x00, 0x04, 0x00,
  0x0c, 0x00, 0x00, 0x00, 0x10, 0x00, 0x00, 0x00, 0x14, 0x00, 0x00, 0x00,
  0x24, 0x00, 0x00, 0x00, 0x40, 0x00, 0x00, 0x00, 0x00, 0x00, 0x00, 0x00,
  0x00, 0x00, 0x00, 0x00, 0x0f, 0x00, 0x00, 0x00, 0x73, 0x65, 0x72, 0x76,
  0x69, 0x6e, 0x67, 0x5f, 0x64, 0x65, 0x66, 0x61, 0x75, 0x6c, 0x74, 0x00,
  0x01, 0x00, 0x00, 0x00, 0x04, 0x00, 0x00, 0x00, 0xc4, 0xff, 0xff, 0xff,
  0x22, 0x00, 0x00, 0x00, 0x04, 0x00, 0x00, 0x00, 0x04, 0x00, 0x00, 0x00,
  0x6c, 0x61, 0x73, 0x74, 0x00, 0x00, 0x00, 0x00, 0x01, 0x00, 0x00, 0x00,
  0x04, 0x00, 0x00, 0x00, 0x16, 0xf6, 0xff, 0xff, 0x04, 0x00, 0x00, 0x00,
  0x05, 0x00, 0x00, 0x00, 0x69, 0x6e, 0x70, 0x75, 0x74, 0x00, 0x00, 0x00,
  0x01, 0x00, 0x00, 0x00, 0x0c, 0x00, 0x00, 0x00, 0x08, 0x00, 0x0c, 0x00,
  0x08, 0x00, 0x04, 0x00, 0x08, 0x00, 0x00, 0x00, 0x24, 0x00, 0x00, 0x00,
  0x04, 0x00, 0x00, 0x00, 0x13, 0x00, 0x00, 0x00, 0x6d, 0x69, 0x6e, 0x5f,
  0x72, 0x75, 0x6e, 0x74, 0x69, 0x6d, 0x65, 0x5f, 0x76, 0x65, 0x72, 0x73,
  0x69, 0x6f, 0x6e, 0x00, 0x25, 0x00, 0x00, 0x00, 0xb8, 0x09, 0x00, 0x00,
  0xb0, 0x09, 0x00, 0x00, 0x9c, 0x09, 0x00, 0x00, 0x78, 0x09, 0x00, 0x00,
  0x5c, 0x09, 0x00, 0x00, 0x40, 0x09, 0x00, 0x00, 0x24, 0x09, 0x00, 0x00,
  0x0c, 0x09, 0x00, 0x00, 0xfc, 0x07, 0x00, 0x00, 0x6c, 0x07, 0x00, 0x00,
  0x5c, 0x03, 0x00, 0x00, 0x0c, 0x03, 0x00, 0x00, 0xfc, 0x01, 0x00, 0x00,
  0xcc, 0x01, 0x00, 0x00, 0x7c, 0x01, 0x00, 0x00, 0x5c, 0x01, 0x00, 0x00,
  0x3c, 0x01, 0x00, 0x00, 0x24, 0x01, 0x00, 0x00, 0xf4, 0x00, 0x00, 0x00,
  0xa4, 0x00, 0x00, 0x00, 0x9c, 0x00, 0x00, 0x00, 0x94, 0x00, 0x00, 0x00,
  0x8c, 0x00, 0x00, 0x00, 0x84, 0x00, 0x00, 0x00, 0x7c, 0x00, 0x00, 0x00,
  0x74, 0x00, 0x00, 0x00, 0x6c, 0x00, 0x00, 0x00, 0x64, 0x00, 0x00, 0x00,
  0x5c, 0x00, 0x00, 0x00, 0x54, 0x00, 0x00, 0x00, 0x4c, 0x00, 0x00, 0x00,
  0x44, 0x00, 0x00, 0x00, 0x3c, 0x00, 0x00, 0x00, 0x34, 0x00, 0x00, 0x00,
  0x2c, 0x00, 0x00, 0x00, 0x24, 0x00, 0x00, 0x00, 0x04, 0x00, 0x00, 0x00,
  0xf6, 0xf6, 0xff, 0xff, 0x04, 0x00, 0x00, 0x00, 0x10, 0x00, 0x00, 0x00,
  0x31, 0x2e, 0x31, 0x34, 0x2e, 0x30, 0x00, 0x00, 0x00, 0x00, 0x00, 0x00,
  0x00, 0x00, 0x00, 0x00, 0x20, 0xdb, 0xff, 0xff, 0x24, 0xdb, 0xff, 0xff,
  0x28, 0xdb, 0xff, 0xff, 0x2c, 0xdb, 0xff, 0xff, 0x30, 0xdb, 0xff, 0xff,
  0x34, 0xdb, 0xff, 0xff, 0x38, 0xdb, 0xff, 0xff, 0x3c, 0xdb, 0xff, 0xff,
  0x40, 0xdb, 0xff, 0xff, 0x44, 0xdb, 0xff, 0xff, 0x48, 0xdb, 0xff, 0xff,
  0x4c, 0xdb, 0xff, 0xff, 0x50, 0xdb, 0xff, 0xff, 0x54, 0xdb, 0xff, 0xff,
  0x58, 0xdb, 0xff, 0xff, 0x5c, 0xdb, 0xff, 0xff, 0x52, 0xf7, 0xff, 0xff,
  0x04, 0x00, 0x00, 0x00, 0x40, 0x00, 0x00, 0x00, 0x45, 0x02, 0x00, 0x00,
  0x94, 0xff, 0xff, 0xff, 0xe7, 0x05, 0x00, 0x00, 0xc2, 0x04, 0x00, 0x00,
  0xcb, 0xff, 0xff, 0xff, 0x19, 0x03, 0x00, 0x00, 0x83, 0x0f, 0x00, 0x00,
  0x86, 0x0d, 0x00, 0x00, 0xbb, 0xf6, 0xff, 0xff, 0x21, 0x05, 0x00, 0x00,
  0xed, 0x07, 0x00, 0x00, 0x4d, 0x01, 0x00, 0x00, 0x1a, 0x03, 0x00, 0x00,
  0x1c, 0x0f, 0x00, 0x00, 0xea, 0x0b, 0x00, 0x00, 0x02, 0x0e, 0x00, 0x00,
  0x9e, 0xf7, 0xff, 0xff, 0x04, 0x00, 0x00, 0x00, 0x20, 0x00, 0x00, 0x00,
  0x5c, 0x07, 0xa1, 0x08, 0xe6, 0x52, 0xc2, 0x08, 0x28, 0x0f, 0x48, 0x30,
  0xb7, 0x7b, 0xe7, 0x1f, 0xd2, 0x14, 0x14, 0x00, 0x74, 0x45, 0xba, 0x0d,
  0xcc, 0x09, 0x61, 0x28, 0xa2, 0x7f, 0xcd, 0x1e, 0xca, 0xf7, 0xff, 0xff,
  0x04, 0x00, 0x00, 0x00, 0x08, 0x00, 0x00, 0x00, 0x4b, 0xfd, 0xff, 0xff,
  0x9f, 0x05, 0x00, 0x00, 0xde, 0xf7, 0xff, 0xff, 0x04, 0x00, 0x00, 0x00,
  0x10, 0x00, 0x00, 0x00, 0x1a, 0xd5, 0x15, 0xf9, 0x81, 0x51, 0x56, 0xe0,
  0x00, 0x65, 0xc8, 0xd7, 0x68, 0xa7, 0x45, 0x7f, 0xfa, 0xf7, 0xff, 0xff,
  0x04, 0x00, 0x00, 0x00, 0x10, 0x00, 0x00, 0x00, 0x6e, 0x02, 0x00, 0x00,
  0x43, 0x00, 0x00, 0x00, 0x8c, 0xfe, 0xff, 0xff, 0x04, 0x02, 0x00, 0x00,
  0x16, 0xf8, 0xff, 0xff, 0x04, 0x00, 0x00, 0x00, 0x40, 0x00, 0x00, 0x00,
  0x2f, 0xe0, 0xef, 0x49, 0x3f, 0x25, 0x04, 0x07, 0xf9, 0x81, 0x09, 0x40,
  0xc3, 0x29, 0xf0, 0x2a, 0xcd, 0xf5, 0x48, 0xb8, 0x55, 0xc7, 0xfa, 0x3f,
  0x37, 0x35, 0xbd, 0x3a, 0x81, 0x07, 0xbb, 0x3f, 0x00, 0x0d, 0x0e, 0x02,
  0xdd, 0x81, 0x2f, 0x3f, 0xec, 0x09, 0xce, 0x40, 0x25, 0xcc, 0x53, 0xa2,
  0xfb, 0x0d, 0xf0, 0xd4, 0x44, 0x00, 0x36, 0xb8, 0x34, 0x81, 0x20, 0x0d,
  0x3b, 0xd5, 0xfe, 0x38, 0x62, 0xf8, 0xff, 0xff, 0x04, 0x00, 0x00, 0x00,
  0x20, 0x00, 0x00, 0x00, 0xc6, 0x02, 0x00, 0x00, 0xd3, 0x00, 0x00, 0x00,
  0x77, 0x01, 0x00, 0x00, 0xd2, 0xfe, 0xff, 0xff, 0xcd, 0x02, 0x00, 0x00,
  0x02, 0x03, 0x00, 0x00, 0xfc, 0xfd, 0xff, 0xff, 0x32, 0x01, 0x00, 0x00,
  0x8e, 0xf8, 0xff, 0xff, 0x04, 0x00, 0x00, 0x00, 0x00, 0x01, 0x00, 0x00,
  0x2d, 0xf1, 0x6c, 0x03, 0xf9, 0xc6, 0xd9, 0x37, 0x0e, 0x4c, 0x67, 0x34,
  0x50, 0xdd, 0x3e, 0xf6, 0x7f, 0x00, 0xc2, 0xe8, 0x4d, 0xba, 0x76, 0xd4,
  0x64, 0xe0, 0x32, 0x41, 0xca, 0xca, 0x2d, 0x0c, 0x3e, 0xf0, 0x38, 0x31,
  0x2e, 0xcf, 0xf2, 0xd1, 0xe3, 0x39, 0xe6, 0xdf, 0xcb, 0x27, 0x4f, 0x5d,
  0x81, 0xbd, 0x24, 0xab, 0xe6, 0xef, 0xe1, 0xc6, 0x1e, 0xdb, 0x33, 0x4a,
  0xeb, 0xf3, 0xf9, 0xaa, 0xc9, 0x13, 0xd6, 0x31, 0x50, 0xed, 0x35, 0x35,
  0x20, 0xdf, 0x4a, 0xf8, 0x1b, 0xde, 0x6d, 0xf8, 0x1a, 0x41, 0x11, 0x03,
  0xf3, 0x2f, 0x17, 0x81, 0x51, 0xce, 0xa2, 0x05, 0x0f, 0xb6, 0xb3, 0xbe,
  0xdd, 0x8f, 0x29, 0xa8, 0x50, 0x9b, 0x1f, 0x9c, 0xe8, 0x1d, 0x01, 0x4a,
  0x43, 0xbc, 0xcb, 0x07, 0xf1, 0xaf, 0x82, 0xcc, 0xc8, 0xe6, 0x81, 0x9b,
  0x17, 0xfc, 0xc0, 0xc7, 0x92, 0xb8, 0xc3, 0x55, 0x03, 0x77, 0x21, 0xdd,
  0x9a, 0x11, 0xc0, 0xc0, 0x25, 0xff, 0xec, 0xdd, 0xaf, 0xd9, 0x33, 0x2b,
  0x2b, 0x56, 0xef, 0xce, 0x08, 0xb0, 0xbc, 0xaf, 0xdd, 0xbf, 0x81, 0x51,
  0xd1, 0x4d, 0xf5, 0x2d, 0xe8, 0xd7, 0xdb, 0xdd, 0xf6, 0xff, 0x8f, 0x07,
  0x34, 0x00, 0x81, 0xaa, 0x11, 0x3e, 0x9d, 0x51, 0x0f, 0x2a, 0x03, 0x6f,
  0xb0, 0x85, 0x91, 0xf4, 0x44, 0x7b, 0x4c, 0xad, 0x4f, 0x02, 0x2c, 0x59,
  0x8a, 0x12, 0x44, 0xd4, 0x2d, 0x1f, 0x2c, 0xac, 0x32, 0xc9, 0xf3, 0xc3,
  0xd1, 0x75, 0xef, 0x3e, 0xed, 0xaf, 0xe0, 0x53, 0xf7, 0xf2, 0xae, 0x2c,
  0x61, 0x39, 0xdb, 0xa4, 0xe7, 0x64, 0x81, 0xd7, 0xb7, 0x1d, 0xad, 0xb6,
  0x10, 0xe3, 0x41, 0x2a, 0x36, 0x2e, 0xf5, 0x33, 0x48, 0x2e, 0xe5, 0xfb,
  0x18, 0x1a, 0xfc, 0xb2, 0xac, 0x51, 0x24, 0x81, 0xf6, 0x0a, 0x0a, 0x36,
  0x0d, 0xaf, 0xf8, 0x29, 0x9a, 0xf9, 0xff, 0xff, 0x04, 0x00, 0x00, 0x00,
  0x40, 0x00, 0x00, 0x00, 0x73, 0x02, 0x00, 0x00, 0x09, 0x01, 0x00, 0x00,
  0xda, 0xfd, 0xff, 0xff, 0x81, 0xfd, 0xff, 0xff, 0xb5, 0xff, 0xff, 0xff,
  0x91, 0xfe, 0xff, 0xff, 0x2a, 0x02, 0x00, 0x00, 0x08, 0xff, 0xff, 0xff,
  0x00, 0x00, 0x00, 0x00, 0x2e, 0xfe, 0xff, 0xff, 0xb9, 0x01, 0x00, 0x00,
  0x50, 0x02, 0x00, 0x00, 0x62, 0xfd, 0xff, 0xff, 0xc4, 0xfd, 0xff, 0xff,
  0x16, 0x05, 0x00, 0x00, 0x68, 0x00, 0x00, 0x00, 0xe6, 0xf9, 0xff, 0xff,
  0x04, 0x00, 0x00, 0x00, 0x00, 0x04, 0x00, 0x00, 0x1f, 0xf4, 0x0d, 0x82,
  0x40, 0x11, 0x66, 0xdd, 0x01, 0xc6, 0xf9, 0xfe, 0x23, 0x33, 0x7f, 0xc5,
  0xf4, 0x48, 0xc0, 0xf1, 0x3f, 0x7a, 0xec, 0xf6, 0x21, 0x4b, 0x4e, 0xc2,
  0x25, 0xe8, 0x1f, 0x14, 0x07, 0xec, 0x0d, 0x2c, 0x1b, 0x1b, 0x23, 0x2b,
  0xe0, 0x48, 0x35, 0x0a, 0x0c, 0x05, 0x38, 0x35, 0xce, 0x08, 0xdd, 0x35,
  0x3e, 0x22, 0xd5, 0x03, 0x2e, 0x21, 0x01, 0x0a, 0x3f, 0x17, 0x2f, 0x11,
  0x04, 0xe2, 0x09, 0x39, 0x29, 0x10, 0x0c, 0x1f, 0x15, 0xf3, 0xdb, 0xfe,
  0xdb, 0x32, 0x2a, 0xeb, 0x0d, 0x16, 0x07, 0xf2, 0x05, 0xd7, 0xe6, 0xd3,
  0x0f, 0xf3, 0x04, 0xf3, 0xd9, 0xe0, 0x0a, 0x1b, 0x1e, 0xfc, 0x12, 0x0c,
  0x81, 0x03, 0x1a, 0x23, 0xf3, 0xd6, 0xb1, 0xe4, 0xac, 0x39, 0x31, 0x14,
  0xd8, 0xfe, 0xd3, 0x18, 0x2d, 0xe3, 0xcf, 0xd7, 0xfd, 0xe9, 0x02, 0x09,
  0xf0, 0xd4, 0x18, 0xf3, 0x3f, 0xdc, 0x1c, 0xbb, 0x06, 0x37, 0x96, 0xcd,
  0x56, 0xba, 0x2a, 0xc5, 0xd6, 0xd5, 0xca, 0x04, 0xb8, 0x21, 0xcf, 0xc9,
  0xbd, 0xc8, 0xd6, 0x4f, 0xc8, 0x97, 0xc3, 0x94, 0x1d, 0xf5, 0x42, 0x31,
  0xf1, 0xcc, 0x03, 0xda, 0x49, 0x40, 0x99, 0xbd, 0xcc, 0x6c, 0xd3, 0x48,
  0x8a, 0x2f, 0x1a, 0x23, 0xa6, 0x37, 0x0e, 0x94, 0xee, 0xae, 0xfa, 0xca,
  0xe6, 0x21, 0x81, 0x26, 0x83, 0xf8, 0xa0, 0x34, 0xb1, 0x3c, 0x3d, 0xae,
  0xf4, 0xe8, 0x43, 0x22, 0x1a, 0x0e, 0x25, 0x46, 0x01, 0x19, 0x1b, 0xeb,
  0xd0, 0xd3, 0x93, 0x2e, 0x9e, 0x4d, 0xc3, 0x08, 0x0c, 0xd4, 0xcf, 0x9a,
  0xb7, 0xb5, 0x1f, 0x0f, 0xd4, 0x45, 0x91, 0x27, 0xfe, 0x8f, 0xf7, 0xf5,
  0xe0, 0x87, 0xbb, 0xcb, 0x1b, 0x2d, 0xf4, 0xd0, 0xf3, 0x88, 0x81, 0x09,
  0xac, 0x06, 0xed, 0xef, 0x4d, 0x1e, 0xef, 0x2f, 0x1f, 0xa8, 0xe2, 0xa3,
  0xd4, 0xa4, 0xd2, 0x9c, 0x24, 0x40, 0xcf, 0x81, 0xd6, 0x30, 0xbc, 0x29,
  0xb6, 0xea, 0x07, 0x2e, 0xc0, 0x36, 0xf6, 0xa4, 0x89, 0xea, 0xf1, 0x2b,
  0xc4, 0xbd, 0x0a, 0xe3, 0xa8, 0xf5, 0xc5, 0x6c, 0x96, 0xe8, 0xa7, 0x5e,
  0xfc, 0x4f, 0x3c, 0x49, 0x43, 0xcb, 0xa7, 0xbf, 0x1d, 0x57, 0x1f, 0xc6,
  0x46, 0x2e, 0x17, 0xe7, 0xe9, 0x5e, 0x47, 0xcf, 0x33, 0x34, 0xe4, 0x26,
  0x66, 0x51, 0x84, 0xc2, 0x2a, 0xbb, 0x45, 0x34, 0x1f, 0x13, 0x15, 0xda,
  0x48, 0xaa, 0xf1, 0x09, 0xbc, 0xab, 0x1b, 0x33, 0x02, 0xdd, 0xd4, 0x10,
  0xd1, 0xfc, 0xa4, 0x11, 0x1e, 0x13, 0x85, 0xe0, 0x7f, 0xeb, 0xd4, 0x96,
  0x97, 0x04, 0x1c, 0xb6, 0xce, 0xe8, 0xc1, 0x2c, 0xaa, 0xfd, 0x3b, 0xf4,
  0x32, 0xd2, 0xde, 0xde, 0x13, 0xf2, 0x38, 0x85, 0xcd, 0x16, 0xfb, 0xe9,
  0x8c, 0x9d, 0x27, 0xb6, 0x2d, 0xe6, 0x20, 0x34, 0x33, 0xf5, 0xfc, 0xa4,
  0xb2, 0x20, 0x3f, 0xfe, 0xc6, 0xce, 0xfb, 0x14, 0xd7, 0xfb, 0x30, 0xb5,
  0x21, 0xe7, 0x0b, 0xe3, 0xc0, 0x2b, 0xa4, 0xf2, 0xf9, 0x2d, 0x22, 0xc1,
  0x7f, 0xfb, 0x55, 0xb9, 0xd5, 0x1f, 0x08, 0xc9, 0x67, 0xff, 0x47, 0x01,
  0xd5, 0xf8, 0x55, 0x2e, 0x3d, 0x3a, 0x32, 0xfa, 0x12, 0xb2, 0xe4, 0xcc,
  0x1e, 0x33, 0x35, 0x16, 0xd4, 0xe9, 0x3f, 0x11, 0xda, 0x3b, 0xf7, 0x5a,
  0x20, 0x5b, 0x19, 0x0b, 0xda, 0xb1, 0x22, 0xf5, 0x9c, 0xbe, 0x2c, 0x8b,
  0x99, 0xb1, 0xe3, 0x01, 0x69, 0x19, 0x8b, 0x39, 0x0d, 0x95, 0xea, 0xe9,
  0x50, 0x08, 0x17, 0xc1, 0xe3, 0x07, 0xea, 0xb6, 0x0d, 0x32, 0x2d, 0x09,
  0x05, 0xd4, 0xcf, 0x00, 0xed, 0x81, 0x34, 0x18, 0x15, 0xda, 0xfa, 0xd9,
  0x64, 0x56, 0xd8, 0x3c, 0xe7, 0x2a, 0x41, 0xb2, 0xfe, 0x0b, 0xec, 0x0a,
  0x21, 0x4d, 0x25, 0xec, 0xd9, 0x6b, 0xe7, 0x28, 0x1e, 0x22, 0x1e, 0xbd,
  0x7f, 0xee, 0xc4, 0x85, 0x4e, 0xfa, 0x36, 0x4b, 0xa5, 0x5f, 0xc4, 0x27,
  0xab, 0xd3, 0x3c, 0x1c, 0x6e, 0x06, 0x36, 0x82, 0xae, 0x78, 0x9e, 0xcb,
  0x90, 0x90, 0x8f, 0x4c, 0x1c, 0x82, 0x35, 0x60, 0xfe, 0x6e, 0x64, 0x46,
  0x4b, 0x42, 0xed, 0x90, 0x19, 0x8c, 0x19, 0x36, 0x9f, 0xb1, 0xd8, 0xc7,
  0xaf, 0x88, 0x1e, 0xa8, 0xf0, 0xfd, 0xd0, 0x89, 0x12, 0xf2, 0x0d, 0x3d,
  0xf4, 0x2c, 0x14, 0x3f, 0x03, 0x3b, 0x19, 0xee, 0x47, 0xad, 0xda, 0x24,
  0xcf, 0x35, 0x0e, 0xbf, 0xba, 0xa5, 0x37, 0xcd, 0x41, 0x0f, 0xb4, 0xba,
  0x17, 0xcf, 0x64, 0x3c, 0x3f, 0x39, 0xb8, 0xd2, 0x81, 0xd0, 0x46, 0xa8,
  0xa6, 0x4a, 0x44, 0xbc, 0xb6, 0xd2, 0x55, 0xa1, 0x14, 0xa7, 0x06, 0x0e,
  0x16, 0xbd, 0xf8, 0xa0, 0x1c, 0x97, 0xa6, 0xda, 0x0b, 0xd1, 0xb0, 0x02,
  0xee, 0x15, 0xf1, 0xf5, 0x1d, 0x01, 0x21, 0x13, 0x24, 0x34, 0xf6, 0x01,
  0x21, 0x18, 0xdc, 0xf8, 0x11, 0xe1, 0xf0, 0xfd, 0x5d, 0x11, 0x1b, 0x22,
  0x22, 0x42, 0xea, 0x13, 0x09, 0x24, 0xfe, 0xf5, 0xfa, 0xf4, 0xe7, 0x81,
  0xc0, 0x2e, 0x49, 0xe9, 0x1e, 0xf3, 0xfe, 0x1d, 0xeb, 0xd9, 0xf6, 0x1a,
  0x17, 0x54, 0xfe, 0x2c, 0xdb, 0x24, 0x27, 0x10, 0x07, 0x38, 0xf2, 0xd9,
  0x03, 0x2c, 0xa7, 0x43, 0x31, 0x1a, 0xb2, 0x4a, 0x02, 0xd1, 0xc3, 0x35,
  0x0d, 0xf5, 0xfe, 0xa1, 0xfb, 0x30, 0x3f, 0x23, 0xd9, 0xb4, 0x3e, 0x06,
  0xd9, 0xa0, 0xc1, 0x46, 0xb0, 0xaa, 0xd6, 0xe7, 0x59, 0xe4, 0x63, 0x0f,
  0xe0, 0x81, 0xe2, 0xa5, 0x3a, 0xd1, 0x63, 0x24, 0x27, 0x42, 0xb4, 0x13,
  0x4a, 0x07, 0x48, 0xab, 0xda, 0x0c, 0xd0, 0x33, 0x1c, 0x0d, 0xad, 0x2b,
  0xd9, 0x98, 0x5f, 0xa8, 0x41, 0xcb, 0xfb, 0x22, 0x98, 0x42, 0x5e, 0xa6,
  0x3f, 0x28, 0x2a, 0x3d, 0xc8, 0xd6, 0xc6, 0xb0, 0xaf, 0xd7, 0xa8, 0x15,
  0x3b, 0x9e, 0xd3, 0xf5, 0x37, 0x9b, 0x2a, 0xfd, 0xd8, 0x88, 0x2a, 0xe4,
  0x1f, 0xc9, 0x89, 0xd1, 0x99, 0x3f, 0xa5, 0x18, 0xb7, 0xac, 0xcf, 0xcf,
  0xf4, 0xad, 0xfe, 0xe1, 0xef, 0x81, 0x2c, 0xbd, 0x32, 0xcf, 0xc1, 0xec,
  0xb4, 0x08, 0x2d, 0x0a, 0x32, 0x13, 0xe8, 0xbf, 0xb7, 0xa1, 0xcf, 0xed,
  0x07, 0x51, 0xa5, 0x25, 0xdc, 0xaa, 0xd6, 0x02, 0xcc, 0x02, 0x3f, 0x04,
  0xf8, 0x3e, 0xb3, 0xb2, 0xda, 0xe8, 0x95, 0x26, 0xdd, 0xb9, 0x33, 0x34,
  0x2e, 0x3c, 0xce, 0x40, 0xdb, 0x39, 0xdf, 0x83, 0x0f, 0x5e, 0x9b, 0xa6,
  0x99, 0x90, 0x18, 0xd7, 0x91, 0x02, 0x30, 0x13, 0x04, 0x1c, 0x31, 0xbd,
  0xd6, 0xbc, 0xf1, 0xf4, 0x94, 0xb7, 0xb3, 0x81, 0x19, 0x15, 0xf4, 0x2b,
  0x01, 0xbc, 0x1f, 0x23, 0x2b, 0xb3, 0xf8, 0x1c, 0xeb, 0xfd, 0xde, 0x6f,
  0x00, 0x21, 0x52, 0xf1, 0x31, 0x3e, 0x01, 0xc6, 0x0d, 0x05, 0x16, 0x04,
  0x4a, 0xd8, 0xd1, 0xee, 0xfc, 0x38, 0xd7, 0x23, 0x55, 0x1e, 0xad, 0x41,
  0xe0, 0x24, 0xd9, 0x27, 0x81, 0x10, 0x24, 0x4a, 0xce, 0xe3, 0x3d, 0x06,
  0xf7, 0x34, 0x05, 0x3c, 0x0b, 0xdd, 0xf1, 0x44, 0x62, 0x49, 0x17, 0xf2,
  0x1e, 0x2d, 0xea, 0x41, 0x45, 0x28, 0xe2, 0xe6, 0x44, 0xe6, 0x42, 0xae,
  0xc7, 0x04, 0x34, 0xde, 0x31, 0xf1, 0xd0, 0xea, 0xd2, 0x18, 0x22, 0xc5,
  0xd3, 0xd1, 0xff, 0x17, 0xf9, 0x4f, 0x0b, 0x32, 0xfa, 0x4e, 0x1f, 0xdc,
  0xfd, 0x0d, 0x1e, 0xe0, 0x3a, 0x15, 0x18, 0x0e, 0xe5, 0x24, 0x1f, 0x13,
  0xd8, 0x01, 0x09, 0x18, 0xe9, 0x12, 0x7f, 0x0a, 0xb3, 0x08, 0xb3, 0x02,
  0xff, 0xe2, 0x05, 0x36, 0xba, 0x1d, 0x38, 0xaf, 0x55, 0xd5, 0x51, 0x37,
  0xf2, 0xfd, 0xff, 0xff, 0x04, 0x00, 0x00, 0x00, 0x80, 0x00, 0x00, 0x00,
  0x6f, 0x00, 0x00, 0x00, 0x4a, 0x00, 0x00, 0x00, 0x11, 0xff, 0xff, 0xff,
  0x0e, 0x00, 0x00, 0x00, 0x3c, 0x00, 0x00, 0x00, 0xaa, 0xfd, 0xff, 0xff,
  0x40, 0x01, 0x00, 0x00, 0x3f, 0x01, 0x00, 0x00, 0x9f, 0x00, 0x00, 0x00,
  0x92, 0x00, 0x00, 0x00, 0xec, 0xff, 0xff, 0xff, 0x09, 0xff, 0xff, 0xff,
  0x99, 0x00, 0x00, 0x00, 0xf1, 0x00, 0x00, 0x00, 0xee, 0x00, 0x00, 0x00,
  0x11, 0xff, 0xff, 0xff, 0xef, 0xff, 0xff, 0xff, 0x6a, 0xfe, 0xff, 0xff,
  0x55, 0xff, 0xff, 0xff, 0x7f, 0x00, 0x00, 0x00, 0xf8, 0x00, 0x00, 0x00,
  0x28, 0x00, 0x00, 0x00, 0x91, 0xff, 0xff, 0xff, 0x50, 0x00, 0x00, 0x00,
  0x49, 0xfd, 0xff, 0xff, 0x04, 0xff, 0xff, 0xff, 0x18, 0x00, 0x00, 0x00,
  0x0d, 0x00, 0x00, 0x00, 0x17, 0x01, 0x00, 0x00, 0xde, 0xff, 0xff, 0xff,
  0x96, 0x00, 0x00, 0x00, 0x17, 0x00, 0x00, 0x00, 0x7e, 0xfe, 0xff, 0xff,
  0x04, 0x00, 0x00, 0x00, 0x00, 0x01, 0x00, 0x00, 0x0d, 0x1c, 0x14, 0x7b,
  0x45, 0x39, 0xc7, 0x7f, 0xdf, 0xff, 0xae, 0x8f, 0x8c, 0x9b, 0xa3, 0x81,
  0xef, 0x32, 0x97, 0xb7, 0x95, 0x09, 0x85, 0x7f, 0xd6, 0x81, 0x1a, 0x2c,
  0x89, 0xd6, 0x00, 0xd5, 0x81, 0x3b, 0x33, 0xf8, 0x06, 0x59, 0xae, 0xdc,
  0x67, 0x14, 0x06, 0x44, 0x48, 0x7f, 0x1b, 0xed, 0x7f, 0x36, 0xe5, 0x22,
  0x2c, 0x3a, 0x1c, 0x27, 0x7f, 0x6f, 0xe1, 0x55, 0x54, 0x42, 0xfa, 0x53,
  0xb4, 0xbf, 0xe0, 0xdf, 0xee, 0xba, 0x37, 0x7f, 0xaf, 0x67, 0x9b, 0xd2,
  0xae, 0x7f, 0x77, 0x39, 0xe7, 0x3e, 0xde, 0xfb, 0x7f, 0xb4, 0x04, 0xcf,
  0x25, 0xd7, 0x15, 0x81, 0x5a, 0x36, 0xfb, 0x0d, 0xef, 0x7f, 0x2b, 0x37,
  0x56, 0xf7, 0x02, 0x92, 0x67, 0x44, 0xd0, 0x7f, 0xf8, 0xe5, 0x45, 0x50,
  0x7f, 0x59, 0x25, 0x33, 0x1c, 0x47, 0xea, 0x2d, 0xf3, 0xa1, 0x37, 0x09,
  0x81, 0x03, 0xe1, 0x11, 0x90, 0x0b, 0x8a, 0x81, 0x3d, 0xed, 0x30, 0xef,
  0x26, 0xd1, 0xf1, 0x81, 0xfd, 0x8d, 0xbf, 0xc7, 0xd5, 0xd6, 0x22, 0x1b,
  0x81, 0x86, 0x19, 0x97, 0xc3, 0xfd, 0x9f, 0x7f, 0x63, 0x08, 0xc0, 0x7f,
  0x4c, 0x7f, 0xed, 0x48, 0x5a, 0x3d, 0xf1, 0x3d, 0x71, 0x76, 0xe3, 0x38,
  0x7f, 0xe6, 0x43, 0x01, 0xdc, 0xec, 0xc2, 0xf7, 0x7f, 0xe9, 0xcb, 0x08,
  0x1f, 0x7f, 0x5b, 0xa7, 0xe7, 0xfd, 0x41, 0x1b, 0xe7, 0xc4, 0x0a, 0x81,
  0x17, 0xee, 0xa6, 0x12, 0x50, 0xe1, 0x1f, 0xed, 0x7f, 0x28, 0xe7, 0xef,
  0x45, 0x7f, 0xc1, 0x84, 0xfb, 0x12, 0x41, 0xdb, 0x9b, 0xb9, 0x2f, 0x40,
  0x81, 0x91, 0x58, 0x08, 0x7f, 0xfb, 0xee, 0x32, 0x55, 0x34, 0x0e, 0xd9,
  0xea, 0xd3, 0x9b, 0xa1, 0x7f, 0xd5, 0xea, 0xe4, 0x62, 0x12, 0xbd, 0xfc,
  0x81, 0x42, 0xec, 0x1e, 0xcb, 0x7f, 0x51, 0x0a, 0x7d, 0x2a, 0xac, 0x56,
  0x8a, 0xff, 0xff, 0xff, 0x04, 0x00, 0x00, 0x00, 0x08, 0x00, 0x00, 0x00,
  0xff, 0xff, 0xff, 0xff, 0x02, 0x00, 0x00, 0x00, 0x9e, 0xff, 0xff, 0xff,
  0x04, 0x00, 0x00, 0x00, 0x0c, 0x00, 0x00, 0x00, 0xff, 0xff, 0xff, 0xff,
  0x02, 0x00, 0x00, 0x00, 0x04, 0x00, 0x00, 0x00, 0xb6, 0xff, 0xff, 0xff,
  0x04, 0x00, 0x00, 0x00, 0x0c, 0x00, 0x00, 0x00, 0xff, 0xff, 0xff, 0xff,
  0x05, 0x00, 0x00, 0x00, 0x08, 0x00, 0x00, 0x00, 0xce, 0xff, 0xff, 0xff,
  0x04, 0x00, 0x00, 0x00, 0x0c, 0x00, 0x00, 0x00, 0xff, 0xff, 0xff, 0xff,
  0x0a, 0x00, 0x00, 0x00, 0x10, 0x00, 0x00, 0x00, 0xe6, 0xff, 0xff, 0xff,
  0x04, 0x00, 0x00, 0x00, 0x0c, 0x00, 0x00, 0x00, 0xff, 0xff, 0xff, 0xff,
  0x14, 0x00, 0x00, 0x00, 0x20, 0x00, 0x00, 0x00, 0x00, 0x00, 0x06, 0x00,
  0x08, 0x00, 0x04, 0x00, 0x06, 0x00, 0x00, 0x00, 0x04, 0x00, 0x00, 0x00,
  0x04, 0x00, 0x00, 0x00, 0xfd, 0xff, 0xff, 0xff, 0x24, 0xe4, 0xff, 0xff,
  0x28, 0xe4, 0xff, 0xff, 0x0f, 0x00, 0x00, 0x00, 0x4d, 0x4c, 0x49, 0x52,
  0x20, 0x43, 0x6f, 0x6e, 0x76, 0x65, 0x72, 0x74, 0x65, 0x64, 0x2e, 0x00,
  0x01, 0x00, 0x00, 0x00, 0x14, 0x00, 0x00, 0x00, 0x00, 0x00, 0x0e, 0x00,
  0x18, 0x00, 0x14, 0x00, 0x10, 0x00, 0x0c, 0x00, 0x08, 0x00, 0x04, 0x00,
  0x0e, 0x00, 0x00, 0x00, 0x14, 0x00, 0x00, 0x00, 0x1c, 0x00, 0x00, 0x00,
  0xac, 0x03, 0x00, 0x00, 0xb0, 0x03, 0x00, 0x00, 0xb4, 0x03, 0x00, 0x00,
  0x04, 0x00, 0x00, 0x00, 0x6d, 0x61, 0x69, 0x6e, 0x00, 0x00, 0x00, 0x00,
  0x10, 0x00, 0x00, 0x00, 0x64, 0x03, 0x00, 0x00, 0x00, 0x03, 0x00, 0x00,
  0xc8, 0x02, 0x00, 0x00, 0x8c, 0x02, 0x00, 0x00, 0x44, 0x02, 0x00, 0x00,
  0x1c, 0x02, 0x00, 0x00, 0xec, 0x01, 0x00, 0x00, 0xa4, 0x01, 0x00, 0x00,
  0x7c, 0x01, 0x00, 0x00, 0x4c, 0x01, 0x00, 0x00, 0x04, 0x01, 0x00, 0x00,
  0xdc, 0x00, 0x00, 0x00, 0xac, 0x00, 0x00, 0x00, 0x64, 0x00, 0x00, 0x00,
  0x3c, 0x00, 0x00, 0x00, 0x04, 0x00, 0x00, 0x00, 0x4a, 0xfd, 0xff, 0xff,
  0x14, 0x00, 0x00, 0x00, 0x00, 0x00, 0x00, 0x08, 0x10, 0x00, 0x00, 0x00,
  0x14, 0x00, 0x00, 0x00, 0x03, 0x00, 0x00, 0x00, 0xd8, 0xe4, 0xff, 0xff,
  0x01, 0x00, 0x00, 0x00, 0x22, 0x00, 0x00, 0x00, 0x03, 0x00, 0x00, 0x00,
  0x21, 0x00, 0x00, 0x00, 0x11, 0x00, 0x00, 0x00, 0x12, 0x00, 0x00, 0x00,
  0xae, 0xfd, 0xff, 0xff, 0x0c, 0x00, 0x00, 0x00, 0x10, 0x00, 0x00, 0x00,
  0x02, 0x00, 0x00, 0x00, 0x01, 0x00, 0x00, 0x00, 0x21, 0x00, 0x00, 0x00,
  0x02, 0x00, 0x00, 0x00, 0x20, 0x00, 0x00, 0x00, 0x06, 0x00, 0x00, 0x00,
  0xa2, 0xfd, 0xff, 0xff, 0x14, 0x00, 0x00, 0x00, 0x00, 0x00, 0x00, 0x01,
  0x20, 0x00, 0x00, 0x00, 0x24, 0x00, 0x00, 0x00, 0x01, 0x00, 0x00, 0x00,
  0x94, 0xfd, 0xff, 0xff, 0x00, 0x00, 0x00, 0x01, 0x01, 0x00, 0x00, 0x00,
  0x02, 0x00, 0x00, 0x00, 0x00, 0x00, 0x00, 0x01, 0x01, 0x00, 0x00, 0x00,
  0x20, 0x00, 0x00, 0x00, 0x03, 0x00, 0x00, 0x00, 0x1f, 0x00, 0x00, 0x00,
  0x0f, 0x00, 0x00, 0x00, 0x10, 0x00, 0x00, 0x00, 0x86, 0xfd, 0xff, 0xff,
  0x10, 0x00, 0x00, 0x00, 0x00, 0x00, 0x00, 0x34, 0x0c, 0x00, 0x00, 0x00,
  0x10, 0x00, 0x00, 0x00, 0x70, 0xe5, 0xff, 0xff, 0x01, 0x00, 0x00, 0x00,
  0x1f, 0x00, 0x00, 0x00, 0x02, 0x00, 0x00, 0x00, 0x1e, 0x00, 0x00, 0x00,
  0x01, 0x00, 0x00, 0x00, 0x42, 0xfe, 0xff, 0xff, 0x0c, 0x00, 0x00, 0x00,
  0x10, 0x00, 0x00, 0x00, 0x02, 0x00, 0x00, 0x00, 0x01, 0x00, 0x00, 0x00,
  0x1e, 0x00, 0x00, 0x00, 0x02, 0x00, 0x00, 0x00, 0x1d, 0x00, 0x00, 0x00,
  0x05, 0x00, 0x00, 0x00, 0x36, 0xfe, 0xff, 0xff, 0x14, 0x00, 0x00, 0x00,
  0x00, 0x00, 0x00, 0x01, 0x20, 0x00, 0x00, 0x00, 0x24, 0x00, 0x00, 0x00,
  0x01, 0x00, 0x00, 0x00, 0x28, 0xfe, 0xff, 0xff, 0x00, 0x00, 0x00, 0x01,
  0x01, 0x00, 0x00, 0x00, 0x02, 0x00, 0x00, 0x00, 0x00, 0x00, 0x00, 0x01,
  0x01, 0x00, 0x00, 0x00, 0x1d, 0x00, 0x00, 0x00, 0x03, 0x00, 0x00, 0x00,
  0x1c, 0x00, 0x00, 0x00, 0x0d, 0x00, 0x00, 0x00, 0x0e, 0x00, 0x00, 0x00,
  0x1a, 0xfe, 0xff, 0xff, 0x10, 0x00, 0x00, 0x00, 0x00, 0x00, 0x00, 0x34,
  0x0c, 0x00, 0x00, 0x00, 0x10, 0x00, 0x00, 0x00, 0x04, 0xe6, 0xff, 0xff,
  0x01, 0x00, 0x00, 0x00, 0x1c, 0x00, 0x00, 0x00, 0x02, 0x00, 0x00, 0x00,
  0x1b, 0x00, 0x00, 0x00, 0x01, 0x00, 0x00, 0x00, 0xd6, 0xfe, 0xff, 0xff,
  0x0c, 0x00, 0x00, 0x00, 0x10, 0x00, 0x00, 0x00, 0x02, 0x00, 0x00, 0x00,
  0x01, 0x00, 0x00, 0x00, 0x1b, 0x00, 0x00, 0x00, 0x02, 0x00, 0x00, 0x00,
  0x1a, 0x00, 0x00, 0x00, 0x04, 0x00, 0x00, 0x00, 0xca, 0xfe, 0xff, 0xff,
  0x14, 0x00, 0x00, 0x00, 0x00, 0x00, 0x00, 0x01, 0x20, 0x00, 0x00, 0x00,
  0x24, 0x00, 0x00, 0x00, 0x01, 0x00, 0x00, 0x00, 0xbc, 0xfe, 0xff, 0xff,
  0x00, 0x00, 0x00, 0x01, 0x01, 0x00, 0x00, 0x00, 0x02, 0x00, 0x00, 0x00,
  0x00, 0x00, 0x00, 0x01, 0x01, 0x00, 0x00, 0x00, 0x1a, 0x00, 0x00, 0x00,
  0x03, 0x00, 0x00, 0x00, 0x19, 0x00, 0x00, 0x00, 0x0b, 0x00, 0x00, 0x00,
  0x0c, 0x00, 0x00, 0x00, 0xae, 0xfe, 0xff, 0xff, 0x10, 0x00, 0x00, 0x00,
  0x00, 0x00, 0x00, 0x34, 0x0c, 0x00, 0x00, 0x00, 0x10, 0x00, 0x00, 0x00,
  0x98, 0xe6, 0xff, 0xff, 0x01, 0x00, 0x00, 0x00, 0x19, 0x00, 0x00, 0x00,
  0x02, 0x00, 0x00, 0x00, 0x18, 0x00, 0x00, 0x00, 0x01, 0x00, 0x00, 0x00,
  0x6a, 0xff, 0xff, 0xff, 0x0c, 0x00, 0x00, 0x00, 0x10, 0x00, 0x00, 0x00,
  0x02, 0x00, 0x00, 0x00, 0x01, 0x00, 0x00, 0x00, 0x18, 0x00, 0x00, 0x00,
  0x02, 0x00, 0x00, 0x00, 0x17, 0x00, 0x00, 0x00, 0x03, 0x00, 0x00, 0x00,
  0x5e, 0xff, 0xff, 0xff, 0x14, 0x00, 0x00, 0x00, 0x00, 0x00, 0x00, 0x01,
  0x20, 0x00, 0x00, 0x00, 0x24, 0x00, 0x00, 0x00, 0x01, 0x00, 0x00, 0x00,
  0x50, 0xff, 0xff, 0xff, 0x00, 0x00, 0x00, 0x01, 0x01, 0x00, 0x00, 0x00,
  0x02, 0x00, 0x00, 0x00, 0x00, 0x00, 0x00, 0x01, 0x01, 0x00, 0x00, 0x00,
  0x17, 0x00, 0x00, 0x00, 0x03, 0x00, 0x00, 0x00, 0x16, 0x00, 0x00, 0x00,
  0x09, 0x00, 0x00, 0x00, 0x0a, 0x00, 0x00, 0x00, 0x42, 0xff, 0xff, 0xff,
  0x10, 0x00, 0x00, 0x00, 0x00, 0x00, 0x00, 0x34, 0x0c, 0x00, 0x00, 0x00,
  0x10, 0x00, 0x00, 0x00, 0x2c, 0xe7, 0xff, 0xff, 0x01, 0x00, 0x00, 0x00,
  0x16, 0x00, 0x00, 0x00, 0x02, 0x00, 0x00, 0x00, 0x15, 0x00, 0x00, 0x00,
  0x01, 0x00, 0x00, 0x00, 0x00, 0x00, 0x0a, 0x00, 0x10, 0x00, 0x0c, 0x00,
  0x08, 0x00, 0x04, 0x00, 0x0a, 0x00, 0x00, 0x00, 0x0c, 0x00, 0x00, 0x00,
  0x10, 0x00, 0x00, 0x00, 0x02, 0x00, 0x00, 0x00, 0x01, 0x00, 0x00, 0x00,
  0x15, 0x00, 0x00, 0x00, 0x02, 0x00, 0x00, 0x00, 0x14, 0x00, 0x00, 0x00,
  0x02, 0x00, 0x00, 0x00, 0x00, 0x00, 0x0e, 0x00, 0x18, 0x00, 0x14, 0x00,
  0x10, 0x00, 0x0c, 0x00, 0x0b, 0x00, 0x04, 0x00, 0x0e, 0x00, 0x00, 0x00,
  0x20, 0x00, 0x00, 0x00, 0x00, 0x00, 0x00, 0x01, 0x2c, 0x00, 0x00, 0x00,
  0x30, 0x00, 0x00, 0x00, 0x01, 0x00, 0x00, 0x00, 0x0c, 0x00, 0x14, 0x00,
  0x13, 0x00, 0x0c, 0x00, 0x08, 0x00, 0x07, 0x00, 0x0c, 0x00, 0x00, 0x00,
  0x00, 0x00, 0x00, 0x01, 0x01, 0x00, 0x00, 0x00, 0x02, 0x00, 0x00, 0x00,
  0x00, 0x00, 0x00, 0x01, 0x01, 0x00, 0x00, 0x00, 0x14, 0x00, 0x00, 0x00,
  0x03, 0x00, 0x00, 0x00, 0x13, 0x00, 0x00, 0x00, 0x07, 0x00, 0x00, 0x00,
  0x08, 0x00, 0x00, 0x00, 0x00, 0x00, 0x0e, 0x00, 0x14, 0x00, 0x00, 0x00,
  0x10, 0x00, 0x0c, 0x00, 0x0b, 0x00, 0x04, 0x00, 0x0e, 0x00, 0x00, 0x00,
  0x10, 0x00, 0x00, 0x00, 0x00, 0x00, 0x00, 0x34, 0x0c, 0x00, 0x00, 0x00,
  0x10, 0x00, 0x00, 0x00, 0xf8, 0xe7, 0xff, 0xff, 0x01, 0x00, 0x00, 0x00,
  0x13, 0x00, 0x00, 0x00, 0x02, 0x00, 0x00, 0x00, 0x00, 0x00, 0x00, 0x00,
  0x01, 0x00, 0x00, 0x00, 0x01, 0x00, 0x00, 0x00, 0x22, 0x00, 0x00, 0x00,
  0x01, 0x00, 0x00, 0x00, 0x00, 0x00, 0x00, 0x00, 0x23, 0x00, 0x00, 0x00,
  0x2c, 0x18, 0x00, 0x00, 0xc0, 0x17, 0x00, 0x00, 0x5c, 0x17, 0x00, 0x00,
  0x08, 0x17, 0x00, 0x00, 0xb4, 0x16, 0x00, 0x00, 0x60, 0x16, 0x00, 0x00,
  0x18, 0x16, 0x00, 0x00, 0x30, 0x14, 0x00, 0x00, 0x64, 0x12, 0x00, 0x00,
  0x38, 0x11, 0x00, 0x00, 0x2c, 0x10, 0x00, 0x00, 0x60, 0x0f, 0x00, 0x00,
  0xb4, 0x0e, 0x00, 0x00, 0x18, 0x0e, 0x00, 0x00, 0x9c, 0x0d, 0x00, 0x00,
  0x18, 0x0d, 0x00, 0x00, 0xb4, 0x0c, 0x00, 0x00, 0x48, 0x0c, 0x00, 0x00,
  0xf4, 0x0b, 0x00, 0x00, 0x60, 0x0b, 0x00, 0x00, 0x6c, 0x0a, 0x00, 0x00,
  0x9c, 0x09, 0x00, 0x00, 0x04, 0x09, 0x00, 0x00, 0x10, 0x08, 0x00, 0x00,
  0x40, 0x07, 0x00, 0x00, 0xa8, 0x06, 0x00, 0x00, 0xb4, 0x05, 0x00, 0x00,
  0xe4, 0x04, 0x00, 0x00, 0x4c, 0x04, 0x00, 0x00, 0x58, 0x03, 0x00, 0x00,
  0x88, 0x02, 0x00, 0x00, 0xf0, 0x01, 0x00, 0x00, 0xfc, 0x00, 0x00, 0x00,
  0x80, 0x00, 0x00, 0x00, 0x04, 0x00, 0x00, 0x00, 0x74, 0xe8, 0xff, 0xff,
  0x18, 0x00, 0x00, 0x00, 0x20, 0x00, 0x00, 0x00, 0x40, 0x00, 0x00, 0x00,
  0x23, 0x00, 0x00, 0x00, 0x00, 0x00, 0x00, 0x09, 0x54, 0x00, 0x00, 0x00,
  0x02, 0x00, 0x00, 0x00, 0xff, 0xff, 0xff, 0xff, 0x10, 0x00, 0x00, 0x00,
  0x5c, 0xe8, 0xff, 0xff, 0x08, 0x00, 0x00, 0x00, 0x14, 0x00, 0x00, 0x00,
  0x01, 0x00, 0x00, 0x00, 0x90, 0xff, 0xff, 0xff, 0xff, 0xff, 0xff, 0xff,
  0x00, 0x00, 0x00, 0x00, 0x01, 0x00, 0x00, 0x00, 0xce, 0x4c, 0x81, 0x3c,
  0x19, 0x00, 0x00, 0x00, 0x53, 0x74, 0x61, 0x74, 0x65, 0x66, 0x75, 0x6c,
  0x50, 0x61, 0x72, 0x74, 0x69, 0x74, 0x69, 0x6f, 0x6e, 0x65, 0x64, 0x43,
  0x61, 0x6c, 0x6c, 0x3a, 0x30, 0x00, 0x00, 0x00, 0x02, 0x00, 0x00, 0x00,
  0x01, 0x00, 0x00, 0x00, 0x10, 0x00, 0x00, 0x00, 0xec, 0xe8, 0xff, 0xff,
  0x18, 0x00, 0x00, 0x00, 0x20, 0x00, 0x00, 0x00, 0x3c, 0x00, 0x00, 0x00,
  0x22, 0x00, 0x00, 0x00, 0x00, 0x00, 0x00, 0x09, 0x54, 0x00, 0x00, 0x00,
  0x02, 0x00, 0x00, 0x00, 0xff, 0xff, 0xff, 0xff, 0x02, 0x00, 0x00, 0x00,
  0xd4, 0xe8, 0xff, 0xff, 0x08, 0x00, 0x00, 0x00, 0x10, 0x00, 0x00, 0x00,
  0x01, 0x00, 0x00, 0x00, 0x80, 0xff, 0xff, 0xff, 0xff, 0xff, 0xff, 0xff,
  0x01, 0x00, 0x00, 0x00, 0xee, 0xb5, 0xab, 0x3c, 0x1d, 0x00, 0x00, 0x00,
  0x73, 0x65, 0x71, 0x75, 0x65, 0x6e, 0x74, 0x69, 0x61, 0x6c, 0x5f, 0x31,
  0x35, 0x2f, 0x46, 0x6c, 0x61, 0x74, 0x74, 0x65, 0x6e, 0x2f, 0x52, 0x65,
  0x73, 0x68, 0x61, 0x70, 0x65, 0x00, 0x00, 0x00, 0x02, 0x00, 0x00, 0x00,
  0x01, 0x00, 0x00, 0x00, 0x02, 0x00, 0x00, 0x00, 0x64, 0xe9, 0xff, 0xff,
  0x18, 0x00, 0x00, 0x00, 0x28, 0x00, 0x00, 0x00, 0x44, 0x00, 0x00, 0x00,
  0x21, 0x00, 0x00, 0x00, 0x00, 0x00, 0x00, 0x09, 0xc4, 0x00, 0x00, 0x00,
  0x04, 0x00, 0x00, 0x00, 0xff, 0xff, 0xff, 0xff, 0x01, 0x00, 0x00, 0x00,
  0x01, 0x00, 0x00, 0x00, 0x02, 0x00, 0x00, 0x00, 0x54, 0xe9, 0xff, 0xff,
  0x08, 0x00, 0x00, 0x00, 0x10, 0x00, 0x00, 0x00, 0x01, 0x00, 0x00, 0x00,
  0x80, 0xff, 0xff, 0xff, 0xff, 0xff, 0xff, 0xff, 0x01, 0x00, 0x00, 0x00,
  0xee, 0xb5, 0xab, 0x3c, 0x87, 0x00, 0x00, 0x00, 0x73, 0x65, 0x71, 0x75,
  0x65, 0x6e, 0x74, 0x69, 0x61, 0x6c, 0x5f, 0x31, 0x35, 0x2f, 0x6d, 0x79,
  0x43, 0x6f, 0x6e, 0x76, 0x34, 0x2f, 0x52, 0x65, 0x6c, 0x75, 0x3b, 0x73,
  0x65, 0x71, 0x75, 0x65, 0x6e, 0x74, 0x69, 0x61, 0x6c, 0x5f, 0x31, 0x35,
  0x2f, 0x6d, 0x79, 0x43, 0x6f, 0x6e, 0x76, 0x34, 0x2f, 0x42, 0x69, 0x61,
  0x73, 0x41, 0x64, 0x64, 0x3b, 0x73, 0x65, 0x71, 0x75, 0x65, 0x6e, 0x74,
  0x69, 0x61, 0x6c, 0x5f, 0x31, 0x35, 0x2f, 0x6d, 0x79, 0x43, 0x6f, 0x6e,
  0x76, 0x34, 0x2f, 0x63, 0x6f, 0x6e, 0x76, 0x31, 0x64, 0x2f, 0x53, 0x71,
  0x75, 0x65, 0x65, 0x7a, 0x65, 0x3b, 0x6d, 0x79, 0x43, 0x6f, 0x6e, 0x76,
  0x34, 0x2f, 0x62, 0x69, 0x61, 0x73, 0x3b, 0x73, 0x65, 0x71, 0x75, 0x65,
  0x6e, 0x74, 0x69, 0x61, 0x6c, 0x5f, 0x31, 0x35, 0x2f, 0x6d, 0x79, 0x43,
  0x6f, 0x6e, 0x76, 0x34, 0x2f, 0x63, 0x6f, 0x6e, 0x76, 0x31, 0x64, 0x00,
  0x04, 0x00, 0x00, 0x00, 0x01, 0x00, 0x00, 0x00, 0x01, 0x00, 0x00, 0x00,
  0x01, 0x00, 0x00, 0x00, 0x02, 0x00, 0x00, 0x00, 0x54, 0xea, 0xff, 0xff,
  0x18, 0x00, 0x00, 0x00, 0x28, 0x00, 0x00, 0x00, 0x48, 0x00, 0x00, 0x00,
  0x20, 0x00, 0x00, 0x00, 0x00, 0x00, 0x00, 0x09, 0x68, 0x00, 0x00, 0x00,
  0x04, 0x00, 0x00, 0x00, 0xff, 0xff, 0xff, 0xff, 0x01, 0x00, 0x00, 0x00,
  0x02, 0x00, 0x00, 0x00, 0x04, 0x00, 0x00, 0x00, 0x44, 0xea, 0xff, 0xff,
  0x08, 0x00, 0x00, 0x00, 0x14, 0x00, 0x00, 0x00, 0x01, 0x00, 0x00, 0x00,
  0x80, 0xff, 0xff, 0xff, 0xff, 0xff, 0xff, 0xff, 0x00, 0x00, 0x00, 0x00,
  0x01, 0x00, 0x00, 0x00, 0x9d, 0xd0, 0xe4, 0x3c, 0x27, 0x00, 0x00, 0x00,
  0x73, 0x65, 0x71, 0x75, 0x65, 0x6e, 0x74, 0x69, 0x61, 0x6c, 0x5f, 0x31,
  0x35, 0x2f, 0x6d, 0x79, 0x43, 0x6f, 0x6e, 0x76, 0x34, 0x2f, 0x63, 0x6f,
  0x6e, 0x76, 0x31, 0x64, 0x2f, 0x45, 0x78, 0x70, 0x61, 0x6e, 0x64, 0x44,
  0x69, 0x6d, 0x73, 0x00, 0x04, 0x00, 0x00, 0x00, 0x01, 0x00, 0x00, 0x00,
  0x01, 0x00, 0x00, 0x00, 0x02, 0x00, 0x00, 0x00, 0x04, 0x00, 0x00, 0x00,
  0xe8, 0xea, 0xff, 0xff, 0x18, 0x00, 0x00, 0x00, 0x24, 0x00, 0x00, 0x00,
  0x40, 0x00, 0x00, 0x00, 0x1f, 0x00, 0x00, 0x00, 0x00, 0x00, 0x00, 0x09,
  0xa4, 0x00, 0x00, 0x00, 0x03, 0x00, 0x00, 0x00, 0xff, 0xff, 0xff, 0xff,
  0x02, 0x00, 0x00, 0x00, 0x04, 0x00, 0x00, 0x00, 0xd4, 0xea, 0xff, 0xff,
  0x08, 0x00, 0x00, 0x00, 0x10, 0x00, 0x00, 0x00, 0x01, 0x00, 0x00, 0x00,
  0x80, 0xff, 0xff, 0xff, 0xff, 0xff, 0xff, 0xff, 0x01, 0x00, 0x00, 0x00,
  0x9d, 0xd0, 0xe4, 0x3c, 0x6a, 0x00, 0x00, 0x00, 0x73, 0x65, 0x71, 0x75,
  0x65, 0x6e, 0x74, 0x69, 0x61, 0x6c, 0x5f, 0x31, 0x35, 0x2f, 0x6d, 0x79,
  0x43, 0x6f, 0x6e, 0x76, 0x33, 0x2f, 0x52, 0x65, 0x6c, 0x75, 0x3b, 0x73,
  0x65, 0x71, 0x75, 0x65, 0x6e, 0x74, 0x69, 0x61, 0x6c, 0x5f, 0x31, 0x35,
  0x2f, 0x6d, 0x79, 0x43, 0x6f, 0x6e, 0x76, 0x33, 0x2f, 0x42, 0x69, 0x61,
  0x73, 0x41, 0x64, 0x64, 0x3b, 0x73, 0x65, 0x71, 0x75, 0x65, 0x6e, 0x74,
  0x69, 0x61, 0x6c, 0x5f, 0x31, 0x35, 0x2f, 0x6d, 0x79, 0x43, 0x6f, 0x6e,
  0x76, 0x33, 0x2f, 0x63, 0x6f, 0x6e, 0x76, 0x31, 0x64, 0x2f, 0x53, 0x71,
  0x75, 0x65, 0x65, 0x7a, 0x65, 0x3b, 0x6d, 0x79, 0x43, 0x6f, 0x6e, 0x76,
  0x33, 0x2f, 0x62, 0x69, 0x61, 0x73, 0x00, 0x00, 0x03, 0x00, 0x00, 0x00,
  0x01, 0x00, 0x00, 0x00, 0x02, 0x00, 0x00, 0x00, 0x04, 0x00, 0x00, 0x00,
  0xb4, 0xeb, 0xff, 0xff, 0x18, 0x00, 0x00, 0x00, 0x28, 0x00, 0x00, 0x00,
  0x44, 0x00, 0x00, 0x00, 0x1e, 0x00, 0x00, 0x00, 0x00, 0x00, 0x00, 0x09,
  0xc4, 0x00, 0x00, 0x00, 0x04, 0x00, 0x00, 0x00, 0xff, 0xff, 0xff, 0xff,
  0x01, 0x00, 0x00, 0x00, 0x02, 0x00, 0x00, 0x00, 0x04, 0x00, 0x00, 0x00,
  0xa4, 0xeb, 0xff, 0xff, 0x08, 0x00, 0x00, 0x00, 0x10, 0x00, 0x00, 0x00,
  0x01, 0x00, 0x00, 0x00, 0x80, 0xff, 0xff, 0xff, 0xff, 0xff, 0xff, 0xff,
  0x01, 0x00, 0x00, 0x00, 0x9d, 0xd0, 0xe4, 0x3c, 0x87, 0x00, 0x00, 0x00,
  0x73, 0x65, 0x71, 0x75, 0x65, 0x6e, 0x74, 0x69, 0x61, 0x6c, 0x5f, 0x31,
  0x35, 0x2f, 0x6d, 0x79, 0x43, 0x6f, 0x6e, 0x76, 0x33, 0x2f, 0x52, 0x65,
  0x6c, 0x75, 0x3b, 0x73, 0x65, 0x71, 0x75, 0x65, 0x6e, 0x74, 0x69, 0x61,
  0x6c, 0x5f, 0x31, 0x35, 0x2f, 0x6d, 0x79, 0x43, 0x6f, 0x6e, 0x76, 0x33,
  0x2f, 0x42, 0x69, 0x61, 0x73, 0x41, 0x64, 0x64, 0x3b, 0x73, 0x65, 0x71,
  0x75, 0x65, 0x6e, 0x74, 0x69, 0x61, 0x6c, 0x5f, 0x31, 0x35, 0x2f, 0x6d,
  0x79, 0x43, 0x6f, 0x6e, 0x76, 0x33, 0x2f, 0x63, 0x6f, 0x6e, 0x76, 0x31,
  0x64, 0x2f, 0x53, 0x71, 0x75, 0x65, 0x65, 0x7a, 0x65, 0x3b, 0x6d, 0x79,
  0x43, 0x6f, 0x6e, 0x76, 0x33, 0x2f, 0x62, 0x69, 0x61, 0x73, 0x3b, 0x73,
  0x65, 0x71, 0x75, 0x65, 0x6e, 0x74, 0x69, 0x61, 0x6c, 0x5f, 0x31, 0x35,
  0x2f, 0x6d, 0x79, 0x43, 0x6f, 0x6e, 0x76, 0x33, 0x2f, 0x63, 0x6f, 0x6e,
  0x76, 0x31, 0x64, 0x00, 0x04, 0x00, 0x00, 0x00, 0x01, 0x00, 0x00, 0x00,
  0x01, 0x00, 0x00, 0x00, 0x02, 0x00, 0x00, 0x00, 0x04, 0x00, 0x00, 0x00,
  0xa4, 0xec, 0xff, 0xff, 0x18, 0x00, 0x00, 0x00, 0x28, 0x00, 0x00, 0x00,
  0x48, 0x00, 0x00, 0x00, 0x1d, 0x00, 0x00, 0x00, 0x00, 0x00, 0x00, 0x09,
  0x68, 0x00, 0x00, 0x00, 0x04, 0x00, 0x00, 0x00, 0xff, 0xff, 0xff, 0xff,
  0x01, 0x00, 0x00, 0x00, 0x05, 0x00, 0x00, 0x00, 0x08, 0x00, 0x00, 0x00,
  0x94, 0xec, 0xff, 0xff, 0x08, 0x00, 0x00, 0x00, 0x14, 0x00, 0x00, 0x00,
  0x01, 0x00, 0x00, 0x00, 0x80, 0xff, 0xff, 0xff, 0xff, 0xff, 0xff, 0xff,
  0x00, 0x00, 0x00, 0x00, 0x01, 0x00, 0x00, 0x00, 0xcc, 0xde, 0x71, 0x3d,
  0x27, 0x00, 0x00, 0x00, 0x73, 0x65, 0x71, 0x75, 0x65, 0x6e, 0x74, 0x69,
  0x61, 0x6c, 0x5f, 0x31, 0x35, 0x2f, 0x6d, 0x79, 0x43, 0x6f, 0x6e, 0x76,
  0x33, 0x2f, 0x63, 0x6f, 0x6e, 0x76, 0x31, 0x64, 0x2f, 0x45, 0x78, 0x70,
  0x61, 0x6e, 0x64, 0x44, 0x69, 0x6d, 0x73, 0x00, 0x04, 0x00, 0x00, 0x00,
  0x01, 0x00, 0x00, 0x00, 0x01, 0x00, 0x00, 0x00, 0x05, 0x00, 0x00, 0x00,
  0x08, 0x00, 0x00, 0x00, 0x38, 0xed, 0xff, 0xff, 0x18, 0x00, 0x00, 0x00,
  0x24, 0x00, 0x00, 0x00, 0x40, 0x00, 0x00, 0x00, 0x1c, 0x00, 0x00, 0x00,
  0x00, 0x00, 0x00, 0x09, 0xa4, 0x00, 0x00, 0x00, 0x03, 0x00, 0x00, 0x00,
  0xff, 0xff, 0xff, 0xff, 0x05, 0x00, 0x00, 0x00, 0x08, 0x00, 0x00, 0x00,
  0x24, 0xed, 0xff, 0xff, 0x08, 0x00, 0x00, 0x00, 0x10, 0x00, 0x00, 0x00,
  0x01, 0x00, 0x00, 0x00, 0x80, 0xff, 0xff, 0xff, 0xff, 0xff, 0xff, 0xff,
  0x01, 0x00, 0x00, 0x00, 0xcc, 0xde, 0x71, 0x3d, 0x6a, 0x00, 0x00, 0x00,
  0x73, 0x65, 0x71, 0x75, 0x65, 0x6e, 0x74, 0x69, 0x61, 0x6c, 0x5f, 0x31,
  0x35, 0x2f, 0x6d, 0x79, 0x43, 0x6f, 0x6e, 0x76, 0x32, 0x2f, 0x52, 0x65,
  0x6c, 0x75, 0x3b, 0x73, 0x65, 0x71, 0x75, 0x65, 0x6e, 0x74, 0x69, 0x61,
  0x6c, 0x5f, 0x31, 0x35, 0x2f, 0x6d, 0x79, 0x43, 0x6f, 0x6e, 0x76, 0x32,
  0x2f, 0x42, 0x69, 0x61, 0x73, 0x41, 0x64, 0x64, 0x3b, 0x73, 0x65, 0x71,
  0x75, 0x65, 0x6e, 0x74, 0x69, 0x61, 0x6c, 0x5f, 0x31, 0x35, 0x2f, 0x6d,
  0x79, 0x43, 0x6f, 0x6e, 0x76, 0x32, 0x2f, 0x63, 0x6f, 0x6e, 0x76, 0x31,
  0x64, 0x2f, 0x53, 0x71, 0x75, 0x65, 0x65, 0x7a, 0x65, 0x3b, 0x6d, 0x79,
  0x43, 0x6f, 0x6e, 0x76, 0x32, 0x2f, 0x62, 0x69, 0x61, 0x73, 0x00, 0x00,
  0x03, 0x00, 0x00, 0x00, 0x01, 0x00, 0x00, 0x00, 0x05, 0x00, 0x00, 0x00,
  0x08, 0x00, 0x00, 0x00, 0x04, 0xee, 0xff, 0xff, 0x18, 0x00, 0x00, 0x00,
  0x28, 0x00, 0x00, 0x00, 0x44, 0x00, 0x00, 0x00, 0x1b, 0x00, 0x00, 0x00,
  0x00, 0x00, 0x00, 0x09, 0xc4, 0x00, 0x00, 0x00, 0x04, 0x00, 0x00, 0x00,
  0xff, 0xff, 0xff, 0xff, 0x01, 0x00, 0x00, 0x00, 0x05, 0x00, 0x00, 0x00,
  0x08, 0x00, 0x00, 0x00, 0xf4, 0xed, 0xff, 0xff, 0x08, 0x00, 0x00, 0x00,
  0x10, 0x00, 0x00, 0x00, 0x01, 0x00, 0x00, 0x00, 0x80, 0xff, 0xff, 0xff,
  0xff, 0xff, 0xff, 0xff, 0x01, 0x00, 0x00, 0x00, 0xcc, 0xde, 0x71, 0x3d,
  0x87, 0x00, 0x00, 0x00, 0x73, 0x65, 0x71, 0x75, 0x65, 0x6e, 0x74, 0x69,
  0x61, 0x6c, 0x5f, 0x31, 0x35, 0x2f, 0x6d, 0x79, 0x43, 0x6f, 0x6e, 0x76,
  0x32, 0x2f, 0x52, 0x65, 0x6c, 0x75, 0x3b, 0x73, 0x65, 0x71, 0x75, 0x65,
  0x6e, 0x74, 0x69, 0x61, 0x6c, 0x5f, 0x31, 0x35, 0x2f, 0x6d, 0x79, 0x43,
  0x6f, 0x6e, 0x76, 0x32, 0x2f, 0x42, 0x69, 0x61, 0x73, 0x41, 0x64, 0x64,
  0x3b, 0x73, 0x65, 0x71, 0x75, 0x65, 0x6e, 0x74, 0x69, 0x61, 0x6c, 0x5f,
  0x31, 0x35, 0x2f, 0x6d, 0x79, 0x43, 0x6f, 0x6e, 0x76, 0x32, 0x2f, 0x63,
  0x6f, 0x6e, 0x76, 0x31, 0x64, 0x2f, 0x53, 0x71, 0x75, 0x65, 0x65, 0x7a,
  0x65, 0x3b, 0x6d, 0x79, 0x43, 0x6f, 0x6e, 0x76, 0x32, 0x2f, 0x62, 0x69,
  0x61, 0x73, 0x3b, 0x73, 0x65, 0x71, 0x75, 0x65, 0x6e, 0x74, 0x69, 0x61,
  0x6c, 0x5f, 0x31, 0x35, 0x2f, 0x6d, 0x79, 0x43, 0x6f, 0x6e, 0x76, 0x32,
  0x2f, 0x63, 0x6f, 0x6e, 0x76, 0x31, 0x64, 0x00, 0x04, 0x00, 0x00, 0x00,
  0x01, 0x00, 0x00, 0x00, 0x01, 0x00, 0x00, 0x00, 0x05, 0x00, 0x00, 0x00,
  0x08, 0x00, 0x00, 0x00, 0xf4, 0xee, 0xff, 0xff, 0x18, 0x00, 0x00, 0x00,
  0x28, 0x00, 0x00, 0x00, 0x48, 0x00, 0x00, 0x00, 0x1a, 0x00, 0x00, 0x00,
  0x00, 0x00, 0x00, 0x09, 0x68, 0x00, 0x00, 0x00, 0x04, 0x00, 0x00, 0x00,
  0xff, 0xff, 0xff, 0xff, 0x01, 0x00, 0x00, 0x00, 0x0a, 0x00, 0x00, 0x00,
  0x10, 0x00, 0x00, 0x00, 0xe4, 0xee, 0xff, 0xff, 0x08, 0x00, 0x00, 0x00,
  0x14, 0x00, 0x00, 0x00, 0x01, 0x00, 0x00, 0x00, 0x80, 0xff, 0xff, 0xff,
  0xff, 0xff, 0xff, 0xff, 0x00, 0x00, 0x00, 0x00, 0x01, 0x00, 0x00, 0x00,
  0xa6, 0x7e, 0x7f, 0x3d, 0x27, 0x00, 0x00, 0x00, 0x73, 0x65, 0x71, 0x75,
  0x65, 0x6e, 0x74, 0x69, 0x61, 0x6c, 0x5f, 0x31, 0x35, 0x2f, 0x6d, 0x79,
  0x43, 0x6f, 0x6e, 0x76, 0x32, 0x2f, 0x63, 0x6f, 0x6e, 0x76, 0x31, 0x64,
  0x2f, 0x45, 0x78, 0x70, 0x61, 0x6e, 0x64, 0x44, 0x69, 0x6d, 0x73, 0x00,
  0x04, 0x00, 0x00, 0x00, 0x01, 0x00, 0x00, 0x00, 0x01, 0x00, 0x00, 0x00,
  0x0a, 0x00, 0x00, 0x00, 0x10, 0x00, 0x00, 0x00, 0x88, 0xef, 0xff, 0xff,
  0x18, 0x00, 0x00, 0x00, 0x24, 0x00, 0x00, 0x00, 0x40, 0x00, 0x00, 0x00,
  0x19, 0x00, 0x00, 0x00, 0x00, 0x00, 0x00, 0x09, 0xa4, 0x00, 0x00, 0x00,
  0x03, 0x00, 0x00, 0x00, 0xff, 0xff, 0xff, 0xff, 0x0a, 0x00, 0x00, 0x00,
  0x10, 0x00, 0x00, 0x00, 0x74, 0xef, 0xff, 0xff, 0x08, 0x00, 0x00, 0x00,
  0x10, 0x00, 0x00, 0x00, 0x01, 0x00, 0x00, 0x00, 0x80, 0xff, 0xff, 0xff,
  0xff, 0xff, 0xff, 0xff, 0x01, 0x00, 0x00, 0x00, 0xa6, 0x7e, 0x7f, 0x3d,
  0x6a, 0x00, 0x00, 0x00, 0x73, 0x65, 0x71, 0x75, 0x65, 0x6e, 0x74, 0x69,
  0x61, 0x6c, 0x5f, 0x31, 0x35, 0x2f, 0x6d, 0x79, 0x43, 0x6f, 0x6e, 0x76,
  0x31, 0x2f, 0x52, 0x65, 0x6c, 0x75, 0x3b, 0x73, 0x65, 0x71, 0x75, 0x65,
  0x6e, 0x74, 0x69, 0x61, 0x6c, 0x5f, 0x31, 0x35, 0x2f, 0x6d, 0x79, 0x43,
  0x6f, 0x6e, 0x76, 0x31, 0x2f, 0x42, 0x69, 0x61, 0x73, 0x41, 0x64, 0x64,
  0x3b, 0x73, 0x65, 0x71, 0x75, 0x65, 0x6e, 0x74, 0x69, 0x61, 0x6c, 0x5f,
  0x31, 0x35, 0x2f, 0x6d, 0x79, 0x43, 0x6f, 0x6e, 0x76, 0x31, 0x2f, 0x63,
  0x6f, 0x6e, 0x76, 0x31, 0x64, 0x2f, 0x53, 0x71, 0x75, 0x65, 0x65, 0x7a,
  0x65, 0x3b, 0x6d, 0x79, 0x43, 0x6f, 0x6e, 0x76, 0x31, 0x2f, 0x62, 0x69,
  0x61, 0x73, 0x00, 0x00, 0x03, 0x00, 0x00, 0x00, 0x01, 0x00, 0x00, 0x00,
  0x0a, 0x00, 0x00, 0x00, 0x10, 0x00, 0x00, 0x00, 0x54, 0xf0, 0xff, 0xff,
  0x18, 0x00, 0x00, 0x00, 0x28, 0x00, 0x00, 0x00, 0x44, 0x00, 0x00, 0x00,
  0x18, 0x00, 0x00, 0x00, 0x00, 0x00, 0x00, 0x09, 0xc4, 0x00, 0x00, 0x00,
  0x04, 0x00, 0x00, 0x00, 0xff, 0xff, 0xff, 0xff, 0x01, 0x00, 0x00, 0x00,
  0x0a, 0x00, 0x00, 0x00, 0x10, 0x00, 0x00, 0x00, 0x44, 0xf0, 0xff, 0xff,
  0x08, 0x00, 0x00, 0x00, 0x10, 0x00, 0x00, 0x00, 0x01, 0x00, 0x00, 0x00,
  0x80, 0xff, 0xff, 0xff, 0xff, 0xff, 0xff, 0xff, 0x01, 0x00, 0x00, 0x00,
  0xa6, 0x7e, 0x7f, 0x3d, 0x87, 0x00, 0x00, 0x00, 0x73, 0x65, 0x71, 0x75,
  0x65, 0x6e, 0x74, 0x69, 0x61, 0x6c, 0x5f, 0x31, 0x35, 0x2f, 0x6d, 0x79,
  0x43, 0x6f, 0x6e, 0x76, 0x31, 0x2f, 0x52, 0x65, 0x6c, 0x75, 0x3b, 0x73,
  0x65, 0x71, 0x75, 0x65, 0x6e, 0x74, 0x69, 0x61, 0x6c, 0x5f, 0x31, 0x35,
  0x2f, 0x6d, 0x79, 0x43, 0x6f, 0x6e, 0x76, 0x31, 0x2f, 0x42, 0x69, 0x61,
  0x73, 0x41, 0x64, 0x64, 0x3b, 0x73, 0x65, 0x71, 0x75, 0x65, 0x6e, 0x74,
  0x69, 0x61, 0x6c, 0x5f, 0x31, 0x35, 0x2f, 0x6d, 0x79, 0x43, 0x6f, 0x6e,
  0x76, 0x31, 0x2f, 0x63, 0x6f, 0x6e, 0x76, 0x31, 0x64, 0x2f, 0x53, 0x71,
  0x75, 0x65, 0x65, 0x7a, 0x65, 0x3b, 0x6d, 0x79, 0x43, 0x6f, 0x6e, 0x76,
  0x31, 0x2f, 0x62, 0x69, 0x61, 0x73, 0x3b, 0x73, 0x65, 0x71, 0x75, 0x65,
  0x6e, 0x74, 0x69, 0x61, 0x6c, 0x5f, 0x31, 0x35, 0x2f, 0x6d, 0x79, 0x43,
  0x6f, 0x6e, 0x76, 0x31, 0x2f, 0x63, 0x6f, 0x6e, 0x76, 0x31, 0x64, 0x00,
  0x04, 0x00, 0x00, 0x00, 0x01, 0x00, 0x00, 0x00, 0x01, 0x00, 0x00, 0x00,
  0x0a, 0x00, 0x00, 0x00, 0x10, 0x00, 0x00, 0x00, 0x44, 0xf1, 0xff, 0xff,
  0x18, 0x00, 0x00, 0x00, 0x28, 0x00, 0x00, 0x00, 0x48, 0x00, 0x00, 0x00,
  0x17, 0x00, 0x00, 0x00, 0x00, 0x00, 0x00, 0x09, 0x68, 0x00, 0x00, 0x00,
  0x04, 0x00, 0x00, 0x00, 0xff, 0xff, 0xff, 0xff, 0x01, 0x00, 0x00, 0x00,
  0x14, 0x00, 0x00, 0x00, 0x20, 0x00, 0x00, 0x00, 0x34, 0xf1, 0xff, 0xff,
  0x08, 0x00, 0x00, 0x00, 0x14, 0x00, 0x00, 0x00, 0x01, 0x00, 0x00, 0x00,
  0x80, 0xff, 0xff, 0xff, 0xff, 0xff, 0xff, 0xff, 0x00, 0x00, 0x00, 0x00,
  0x01, 0x00, 0x00, 0x00, 0xad, 0x77, 0x32, 0x3d, 0x27, 0x00, 0x00, 0x00,
  0x73, 0x65, 0x71, 0x75, 0x65, 0x6e, 0x74, 0x69, 0x61, 0x6c, 0x5f, 0x31,
  0x35, 0x2f, 0x6d, 0x79, 0x43, 0x6f, 0x6e, 0x76, 0x31, 0x2f, 0x63, 0x6f,
  0x6e, 0x76, 0x31, 0x64, 0x2f, 0x45, 0x78, 0x70, 0x61, 0x6e, 0x64, 0x44,
  0x69, 0x6d, 0x73, 0x00, 0x04, 0x00, 0x00, 0x00, 0x01, 0x00, 0x00, 0x00,
  0x01, 0x00, 0x00, 0x00, 0x14, 0x00, 0x00, 0x00, 0x20, 0x00, 0x00, 0x00,
  0xd8, 0xf1, 0xff, 0xff, 0x18, 0x00, 0x00, 0x00, 0x24, 0x00, 0x00, 0x00,
  0x40, 0x00, 0x00, 0x00, 0x16, 0x00, 0x00, 0x00, 0x00, 0x00, 0x00, 0x09,
  0xa4, 0x00, 0x00, 0x00, 0x03, 0x00, 0x00, 0x00, 0xff, 0xff, 0xff, 0xff,
  0x14, 0x00, 0x00, 0x00, 0x20, 0x00, 0x00, 0x00, 0xc4, 0xf1, 0xff, 0xff,
  0x08, 0x00, 0x00, 0x00, 0x10, 0x00, 0x00, 0x00, 0x01, 0x00, 0x00, 0x00,
  0x80, 0xff, 0xff, 0xff, 0xff, 0xff, 0xff, 0xff, 0x01, 0x00, 0x00, 0x00,
  0xad, 0x77, 0x32, 0x3d, 0x6a, 0x00, 0x00, 0x00, 0x73, 0x65, 0x71, 0x75,
  0x65, 0x6e, 0x74, 0x69, 0x61, 0x6c, 0x5f, 0x31, 0x35, 0x2f, 0x6d, 0x79,
  0x43, 0x6f, 0x6e, 0x76, 0x30, 0x2f, 0x52, 0x65, 0x6c, 0x75, 0x3b, 0x73,
  0x65, 0x71, 0x75, 0x65, 0x6e, 0x74, 0x69, 0x61, 0x6c, 0x5f, 0x31, 0x35,
  0x2f, 0x6d, 0x79, 0x43, 0x6f, 0x6e, 0x76, 0x30, 0x2f, 0x42, 0x69, 0x61,
  0x73, 0x41, 0x64, 0x64, 0x3b, 0x73, 0x65, 0x71, 0x75, 0x65, 0x6e, 0x74,
  0x69, 0x61, 0x6c, 0x5f, 0x31, 0x35, 0x2f, 0x6d, 0x79, 0x43, 0x6f, 0x6e,
  0x76, 0x30, 0x2f, 0x63, 0x6f, 0x6e, 0x76, 0x31, 0x64, 0x2f, 0x53, 0x71,
  0x75, 0x65, 0x65, 0x7a, 0x65, 0x3b, 0x6d, 0x79, 0x43, 0x6f, 0x6e, 0x76,
  0x30, 0x2f, 0x62, 0x69, 0x61, 0x73, 0x00, 0x00, 0x03, 0x00, 0x00, 0x00,
  0x01, 0x00, 0x00, 0x00, 0x14, 0x00, 0x00, 0x00, 0x20, 0x00, 0x00, 0x00,
  0xa4, 0xf2, 0xff, 0xff, 0x18, 0x00, 0x00, 0x00, 0x28, 0x00, 0x00, 0x00,
  0x44, 0x00, 0x00, 0x00, 0x15, 0x00, 0x00, 0x00, 0x00, 0x00, 0x00, 0x09,
  0xc4, 0x00, 0x00, 0x00, 0x04, 0x00, 0x00, 0x00, 0xff, 0xff, 0xff, 0xff,
  0x01, 0x00, 0x00, 0x00, 0x14, 0x00, 0x00, 0x00, 0x20, 0x00, 0x00, 0x00,
  0x94, 0xf2, 0xff, 0xff, 0x08, 0x00, 0x00, 0x00, 0x10, 0x00, 0x00, 0x00,
  0x01, 0x00, 0x00, 0x00, 0x80, 0xff, 0xff, 0xff, 0xff, 0xff, 0xff, 0xff,
  0x01, 0x00, 0x00, 0x00, 0xad, 0x77, 0x32, 0x3d, 0x87, 0x00, 0x00, 0x00,
  0x73, 0x65, 0x71, 0x75, 0x65, 0x6e, 0x74, 0x69, 0x61, 0x6c, 0x5f, 0x31,
  0x35, 0x2f, 0x6d, 0x79, 0x43, 0x6f, 0x6e, 0x76, 0x30, 0x2f, 0x52, 0x65,
  0x6c, 0x75, 0x3b, 0x73, 0x65, 0x71, 0x75, 0x65, 0x6e, 0x74, 0x69, 0x61,
  0x6c, 0x5f, 0x31, 0x35, 0x2f, 0x6d, 0x79, 0x43, 0x6f, 0x6e, 0x76, 0x30,
  0x2f, 0x42, 0x69, 0x61, 0x73, 0x41, 0x64, 0x64, 0x3b, 0x73, 0x65, 0x71,
  0x75, 0x65, 0x6e, 0x74, 0x69, 0x61, 0x6c, 0x5f, 0x31, 0x35, 0x2f, 0x6d,
  0x79, 0x43, 0x6f, 0x6e, 0x76, 0x30, 0x2f, 0x63, 0x6f, 0x6e, 0x76, 0x31,
  0x64, 0x2f, 0x53, 0x71, 0x75, 0x65, 0x65, 0x7a, 0x65, 0x3b, 0x6d, 0x79,
  0x43, 0x6f, 0x6e, 0x76, 0x30, 0x2f, 0x62, 0x69, 0x61, 0x73, 0x3b, 0x73,
  0x65, 0x71, 0x75, 0x65, 0x6e, 0x74, 0x69, 0x61, 0x6c, 0x5f, 0x31, 0x35,
  0x2f, 0x6d, 0x79, 0x43, 0x6f, 0x6e, 0x76, 0x30, 0x2f, 0x63, 0x6f, 0x6e,
  0x76, 0x31, 0x64, 0x00, 0x04, 0x00, 0x00, 0x00, 0x01, 0x00, 0x00, 0x00,
  0x01, 0x00, 0x00, 0x00, 0x14, 0x00, 0x00, 0x00, 0x20, 0x00, 0x00, 0x00,
  0x94, 0xf3, 0xff, 0xff, 0x18, 0x00, 0x00, 0x00, 0x28, 0x00, 0x00, 0x00,
  0x44, 0x00, 0x00, 0x00, 0x14, 0x00, 0x00, 0x00, 0x00, 0x00, 0x00, 0x09,
  0x64, 0x00, 0x00, 0x00, 0x04, 0x00, 0x00, 0x00, 0xff, 0xff, 0xff, 0xff,
  0x01, 0x00, 0x00, 0x00, 0x28, 0x00, 0x00, 0x00, 0x04, 0x00, 0x00, 0x00,
  0x84, 0xf3, 0xff, 0xff, 0x08, 0x00, 0x00, 0x00, 0x10, 0x00, 0x00, 0x00,
  0x01, 0x00, 0x00, 0x00, 0xd7, 0xff, 0xff, 0xff, 0xff, 0xff, 0xff, 0xff,
  0x01, 0x00, 0x00, 0x00, 0x36, 0x6a, 0x1d, 0x3e, 0x27, 0x00, 0x00, 0x00,
  0x73, 0x65, 0x71, 0x75, 0x65, 0x6e, 0x74, 0x69, 0x61, 0x6c, 0x5f, 0x31,
  0x35, 0x2f, 0x6d, 0x79, 0x43, 0x6f, 0x6e, 0x76, 0x30, 0x2f, 0x63, 0x6f,
  0x6e, 0x76, 0x31, 0x64, 0x2f, 0x45, 0x78, 0x70, 0x61, 0x6e, 0x64, 0x44,
  0x69, 0x6d, 0x73, 0x00, 0x04, 0x00, 0x00, 0x00, 0x01, 0x00, 0x00, 0x00,
  0x01, 0x00, 0x00, 0x00, 0x28, 0x00, 0x00, 0x00, 0x04, 0x00, 0x00, 0x00,
  0x86, 0xf4, 0xff, 0xff, 0x14, 0x00, 0x00, 0x00, 0x30, 0x00, 0x00, 0x00,
  0x13, 0x00, 0x00, 0x00, 0x00, 0x00, 0x00, 0x02, 0x34, 0x00, 0x00, 0x00,
  0xfc, 0xf3, 0xff, 0xff, 0x08, 0x00, 0x00, 0x00, 0x10, 0x00, 0x00, 0x00,
  0x01, 0x00, 0x00, 0x00, 0x00, 0x00, 0x00, 0x00, 0x00, 0x00, 0x00, 0x00,
  0x01, 0x00, 0x00, 0x00, 0xe8, 0x13, 0xdf, 0x38, 0x09, 0x00, 0x00, 0x00,
  0x6c, 0x61, 0x73, 0x74, 0x2f, 0x62, 0x69, 0x61, 0x73, 0x00, 0x00, 0x00,
  0x01, 0x00, 0x00, 0x00, 0x10, 0x00, 0x00, 0x00, 0xd6, 0xf4, 0xff, 0xff,
  0x14, 0x00, 0x00, 0x00, 0x34, 0x00, 0x00, 0x00, 0x12, 0x00, 0x00, 0x00,
  0x00, 0x00, 0x00, 0x09, 0x48, 0x00, 0x00, 0x00, 0x4c, 0xf4, 0xff, 0xff,
  0x08, 0x00, 0x00, 0x00, 0x14, 0x00, 0x00, 0x00, 0x01, 0x00, 0x00, 0x00,
  0x00, 0x00, 0x00, 0x00, 0x00, 0x00, 0x00, 0x00, 0x00, 0x00, 0x00, 0x00,
  0x01, 0x00, 0x00, 0x00, 0x85, 0x4a, 0xa6, 0x3b, 0x19, 0x00, 0x00, 0x00,
  0x73, 0x65, 0x71, 0x75, 0x65, 0x6e, 0x74, 0x69, 0x61, 0x6c, 0x5f, 0x31,
  0x35, 0x2f, 0x6c, 0x61, 0x73, 0x74, 0x2f, 0x4d, 0x61, 0x74, 0x4d, 0x75,
  0x6c, 0x00, 0x00, 0x00, 0x02, 0x00, 0x00, 0x00, 0x10, 0x00, 0x00, 0x00,
  0x02, 0x00, 0x00, 0x00, 0x3e, 0xf5, 0xff, 0xff, 0x14, 0x00, 0x00, 0x00,
  0x3c, 0x00, 0x00, 0x00, 0x11, 0x00, 0x00, 0x00, 0x00, 0x00, 0x00, 0x02,
  0x44, 0x00, 0x00, 0x00, 0xb4, 0xf4, 0xff, 0xff, 0x08, 0x00, 0x00, 0x00,
  0x18, 0x00, 0x00, 0x00, 0x02, 0x00, 0x00, 0x00, 0x00, 0x00, 0x00, 0x00,
  0x00, 0x00, 0x00, 0x00, 0x00, 0x00, 0x00, 0x00, 0x00, 0x00, 0x00, 0x00,
  0x02, 0x00, 0x00, 0x00, 0x24, 0x3d, 0x34, 0x39, 0xbf, 0xd5, 0x1d, 0x39,
  0x0c, 0x00, 0x00, 0x00, 0x6d, 0x79, 0x43, 0x6f, 0x6e, 0x76, 0x34, 0x2f,
  0x62, 0x69, 0x61, 0x73, 0x00, 0x00, 0x00, 0x00, 0x01, 0x00, 0x00, 0x00,
  0x02, 0x00, 0x00, 0x00, 0x9e, 0xf5, 0xff, 0xff, 0x14, 0x00, 0x00, 0x00,
  0x40, 0x00, 0x00, 0x00, 0x10, 0x00, 0x00, 0x00, 0x00, 0x00, 0x00, 0x09,
  0x58, 0x00, 0x00, 0x00, 0x14, 0xf5, 0xff, 0xff, 0x08, 0x00, 0x00, 0x00,
  0x1c, 0x00, 0x00, 0x00, 0x02, 0x00, 0x00, 0x00, 0x00, 0x00, 0x00, 0x00,
  0x00, 0x00, 0x00, 0x00, 0x00, 0x00, 0x00, 0x00, 0x00, 0x00, 0x00, 0x00,
  0x00, 0x00, 0x00, 0x00, 0x02, 0x00, 0x00, 0x00, 0x17, 0xa7, 0xc9, 0x3b,
  0x49, 0x96, 0xb0, 0x3b, 0x1c, 0x00, 0x00, 0x00, 0x73, 0x65, 0x71, 0x75,
  0x65, 0x6e, 0x74, 0x69, 0x61, 0x6c, 0x5f, 0x31, 0x35, 0x2f, 0x6d, 0x79,
  0x43, 0x6f, 0x6e, 0x76, 0x34, 0x2f, 0x63, 0x6f, 0x6e, 0x76, 0x31, 0x64,
  0x00, 0x00, 0x00, 0x00, 0x04, 0x00, 0x00, 0x00, 0x02, 0x00, 0x00, 0x00,
  0x01, 0x00, 0x00, 0x00, 0x02, 0x00, 0x00, 0x00, 0x04, 0x00, 0x00, 0x00,
  0x1e, 0xf6, 0xff, 0xff, 0x14, 0x00, 0x00, 0x00, 0x54, 0x00, 0x00, 0x00,
  0x0f, 0x00, 0x00, 0x00, 0x00, 0x00, 0x00, 0x02, 0x5c, 0x00, 0x00, 0x00,
  0x94, 0xf5, 0xff, 0xff, 0x08, 0x00, 0x00, 0x00, 0x28, 0x00, 0x00, 0x00,
  0x04, 0x00, 0x00, 0x00, 0x00, 0x00, 0x00, 0x00, 0x00, 0x00, 0x00, 0x00,
  0x00, 0x00, 0x00, 0x00, 0x00, 0x00, 0x00, 0x00, 0x00, 0x00, 0x00, 0x00,
  0x00, 0x00, 0x00, 0x00, 0x00, 0x00, 0x00, 0x00, 0x00, 0x00, 0x00, 0x00,
  0x04, 0x00, 0x00, 0x00, 0xee, 0x5d, 0xb8, 0x39, 0x42, 0x87, 0x90, 0x39,
  0xaa, 0xb5, 0x99, 0x39, 0xfe, 0x7f, 0xd9, 0x39, 0x0c, 0x00, 0x00, 0x00,
  0x6d, 0x79, 0x43, 0x6f, 0x6e, 0x76, 0x33, 0x2f, 0x62, 0x69, 0x61, 0x73,
  0x00, 0x00, 0x00, 0x00, 0x01, 0x00, 0x00, 0x00, 0x04, 0x00, 0x00, 0x00,
  0x96, 0xf6, 0xff, 0xff, 0x14, 0x00, 0x00, 0x00, 0x58, 0x00, 0x00, 0x00,
  0x0e, 0x00, 0x00, 0x00, 0x00, 0x00, 0x00, 0x09, 0x70, 0x00, 0x00, 0x00,
  0x0c, 0xf6, 0xff, 0xff, 0x08, 0x00, 0x00, 0x00, 0x2c, 0x00, 0x00, 0x00,
  0x04, 0x00, 0x00, 0x00, 0x00, 0x00, 0x00, 0x00, 0x00, 0x00, 0x00, 0x00,
  0x00, 0x00, 0x00, 0x00, 0x00, 0x00, 0x00, 0x00, 0x00, 0x00, 0x00, 0x00,
  0x00, 0x00, 0x00, 0x00, 0x00, 0x00, 0x00, 0x00, 0x00, 0x00, 0x00, 0x00,
  0x00, 0x00, 0x00, 0x00, 0x04, 0x00, 0x00, 0x00, 0x29, 0x23, 0xc3, 0x3b,
  0xb3, 0xf8, 0x98, 0x3b, 0x6a, 0xb0, 0xa2, 0x3b, 0xbc, 0x34, 0xe6, 0x3b,
  0x1c, 0x00, 0x00, 0x00, 0x73, 0x65, 0x71, 0x75, 0x65, 0x6e, 0x74, 0x69,
  0x61, 0x6c, 0x5f, 0x31, 0x35, 0x2f, 0x6d, 0x79, 0x43, 0x6f, 0x6e, 0x76,
  0x33, 0x2f, 0x63, 0x6f, 0x6e, 0x76, 0x31, 0x64, 0x00, 0x00, 0x00, 0x00,
  0x04, 0x00, 0x00, 0x00, 0x04, 0x00, 0x00, 0x00, 0x01, 0x00, 0x00, 0x00,
  0x02, 0x00, 0x00, 0x00, 0x08, 0x00, 0x00, 0x00, 0x2e, 0xf7, 0xff, 0xff,
  0x14, 0x00, 0x00, 0x00, 0x84, 0x00, 0x00, 0x00, 0x0d, 0x00, 0x00, 0x00,
  0x00, 0x00, 0x00, 0x02, 0x8c, 0x00, 0x00, 0x00, 0xa4, 0xf6, 0xff, 0xff,
  0x08, 0x00, 0x00, 0x00, 0x48, 0x00, 0x00, 0x00, 0x08, 0x00, 0x00, 0x00,
  0x00, 0x00, 0x00, 0x00, 0x00, 0x00, 0x00, 0x00, 0x00, 0x00, 0x00, 0x00,
  0x00, 0x00, 0x00, 0x00, 0x00, 0x00, 0x00, 0x00, 0x00, 0x00, 0x00, 0x00,
  0x00, 0x00, 0x00, 0x00, 0x00, 0x00, 0x00, 0x00, 0x00, 0x00, 0x00, 0x00,
  0x00, 0x00, 0x00, 0x00, 0x00, 0x00, 0x00, 0x00, 0x00, 0x00, 0x00, 0x00,
  0x00, 0x00, 0x00, 0x00, 0x00, 0x00, 0x00, 0x00, 0x00, 0x00, 0x00, 0x00,
  0x00, 0x00, 0x00, 0x00, 0x08, 0x00, 0x00, 0x00, 0x02, 0x92, 0x57, 0x39,
  0x6d, 0x14, 0x91, 0x39, 0x89, 0x13, 0x87, 0x39, 0x12, 0xb3, 0x50, 0x39,
  0xdc, 0x5e, 0x85, 0x39, 0x45, 0x3a, 0x35, 0x39, 0xcb, 0x41, 0x49, 0x39,
  0xa2, 0x84, 0x91, 0x39, 0x0c, 0x00, 0x00, 0x00, 0x6d, 0x79, 0x43, 0x6f,
  0x6e, 0x76, 0x32, 0x2f, 0x62, 0x69, 0x61, 0x73, 0x00, 0x00, 0x00, 0x00,
  0x01, 0x00, 0x00, 0x00, 0x08, 0x00, 0x00, 0x00, 0xd6, 0xf7, 0xff, 0xff,
  0x14, 0x00, 0x00, 0x00, 0x88, 0x00, 0x00, 0x00, 0x0c, 0x00, 0x00, 0x00,
  0x00, 0x00, 0x00, 0x09, 0xa0, 0x00, 0x00, 0x00, 0x4c, 0xf7, 0xff, 0xff,
  0x08, 0x00, 0x00, 0x00, 0x4c, 0x00, 0x00, 0x00, 0x08, 0x00, 0x00, 0x00,
  0x00, 0x00, 0x00, 0x00, 0x00, 0x00, 0x00, 0x00, 0x00, 0x00, 0x00, 0x00,
  0x00, 0x00, 0x00, 0x00, 0x00, 0x00, 0x00, 0x00, 0x00, 0x00, 0x00, 0x00,
  0x00, 0x00, 0x00, 0x00, 0x00, 0x00, 0x00, 0x00, 0x00, 0x00, 0x00, 0x00,
  0x00, 0x00, 0x00, 0x00, 0x00, 0x00, 0x00, 0x00, 0x00, 0x00, 0x00, 0x00,
  0x00, 0x00, 0x00, 0x00, 0x00, 0x00, 0x00, 0x00, 0x00, 0x00, 0x00, 0x00,
  0x00, 0x00, 0x00, 0x00, 0x00, 0x00, 0x00, 0x00, 0x08, 0x00, 0x00, 0x00,
  0x26, 0xff, 0x57, 0x3b, 0xe0, 0x5d, 0x91, 0x3b, 0xec, 0x57, 0x87, 0x3b,
  0xbb, 0x1c, 0x51, 0x3b, 0x62, 0xa2, 0x85, 0x3b, 0x05, 0x96, 0x35, 0x3b,
  0xaf, 0xa7, 0x49, 0x3b, 0x4e, 0xce, 0x91, 0x3b, 0x1c, 0x00, 0x00, 0x00,
  0x73, 0x65, 0x71, 0x75, 0x65, 0x6e, 0x74, 0x69, 0x61, 0x6c, 0x5f, 0x31,
  0x35, 0x2f, 0x6d, 0x79, 0x43, 0x6f, 0x6e, 0x76, 0x32, 0x2f, 0x63, 0x6f,
  0x6e, 0x76, 0x31, 0x64, 0x00, 0x00, 0x00, 0x00, 0x04, 0x00, 0x00, 0x00,
  0x08, 0x00, 0x00, 0x00, 0x01, 0x00, 0x00, 0x00, 0x02, 0x00, 0x00, 0x00,
  0x10, 0x00, 0x00, 0x00, 0x9e, 0xf8, 0xff, 0xff, 0x14, 0x00, 0x00, 0x00,
  0xe4, 0x00, 0x00, 0x00, 0x0b, 0x00, 0x00, 0x00, 0x00, 0x00, 0x00, 0x02,
  0xec, 0x00, 0x00, 0x00, 0x14, 0xf8, 0xff, 0xff, 0x08, 0x00, 0x00, 0x00,
  0x88, 0x00, 0x00, 0x00, 0x10, 0x00, 0x00, 0x00, 0x00, 0x00, 0x00, 0x00,
  0x00, 0x00, 0x00, 0x00, 0x00, 0x00, 0x00, 0x00, 0x00, 0x00, 0x00, 0x00,
  0x00, 0x00, 0x00, 0x00, 0x00, 0x00, 0x00, 0x00, 0x00, 0x00, 0x00, 0x00,
  0x00, 0x00, 0x00, 0x00, 0x00, 0x00, 0x00, 0x00, 0x00, 0x00, 0x00, 0x00,
  0x00, 0x00, 0x00, 0x00, 0x00, 0x00, 0x00, 0x00, 0x00, 0x00, 0x00, 0x00,
  0x00, 0x00, 0x00, 0x00, 0x00, 0x00, 0x00, 0x00, 0x00, 0x00, 0x00, 0x00,
  0x00, 0x00, 0x00, 0x00, 0x00, 0x00, 0x00, 0x00, 0x00, 0x00, 0x00, 0x00,
  0x00, 0x00, 0x00, 0x00, 0x00, 0x00, 0x00, 0x00, 0x00, 0x00, 0x00, 0x00,
  0x00, 0x00, 0x00, 0x00, 0x00, 0x00, 0x00, 0x00, 0x00, 0x00, 0x00, 0x00,
  0x00, 0x00, 0x00, 0x00, 0x00, 0x00, 0x00, 0x00, 0x00, 0x00, 0x00, 0x00,
  0x00, 0x00, 0x00, 0x00, 0x00, 0x00, 0x00, 0x00, 0x00, 0x00, 0x00, 0x00,
  0x00, 0x00, 0x00, 0x00, 0x10, 0x00, 0x00, 0x00, 0xfb, 0xf8, 0x38, 0x39,
  0xf8, 0x02, 0x90, 0x39, 0x8d, 0xa6, 0xe1, 0x38, 0xa6, 0x12, 0xd8, 0x38,
  0x76, 0x5b, 0xef, 0x38, 0x35, 0xdb, 0xf8, 0x38, 0xfb, 0x00, 0x15, 0x39,
  0x34, 0xcb, 0x3a, 0x39, 0xba, 0x08, 0xb2, 0x38, 0xff, 0x4c, 0xe6, 0x38,
  0x59, 0x57, 0x59, 0x39, 0x45, 0xc6, 0x01, 0x39, 0xc6, 0x48, 0xe5, 0x38,
  0xbf, 0x31, 0xdc, 0x38, 0xcb, 0x40, 0x29, 0x39, 0xc8, 0xa6, 0x24, 0x39,
  0x0c, 0x00, 0x00, 0x00, 0x6d, 0x79, 0x43, 0x6f, 0x6e, 0x76, 0x31, 0x2f,
  0x62, 0x69, 0x61, 0x73, 0x00, 0x00, 0x00, 0x00, 0x01, 0x00, 0x00, 0x00,
  0x10, 0x00, 0x00, 0x00, 0xa6, 0xf9, 0xff, 0xff, 0x14, 0x00, 0x00, 0x00,
  0xe8, 0x00, 0x00, 0x00, 0x0a, 0x00, 0x00, 0x00, 0x00, 0x00, 0x00, 0x09,
  0x00, 0x01, 0x00, 0x00, 0x1c, 0xf9, 0xff, 0xff, 0x08, 0x00, 0x00, 0x00,
  0x8c, 0x00, 0x00, 0x00, 0x10, 0x00, 0x00, 0x00, 0x00, 0x00, 0x00, 0x00,
  0x00, 0x00, 0x00, 0x00, 0x00, 0x00, 0x00, 0x00, 0x00, 0x00, 0x00, 0x00,
  0x00, 0x00, 0x00, 0x00, 0x00, 0x00, 0x00, 0x00, 0x00, 0x00, 0x00, 0x00,
  0x00, 0x00, 0x00, 0x00, 0x00, 0x00, 0x00, 0x00, 0x00, 0x00, 0x00, 0x00,
  0x00, 0x00, 0x00, 0x00, 0x00, 0x00, 0x00, 0x00, 0x00, 0x00, 0x00, 0x00,
  0x00, 0x00, 0x00, 0x00, 0x00, 0x00, 0x00, 0x00, 0x00, 0x00, 0x00, 0x00,
  0x00, 0x00, 0x00, 0x00, 0x00, 0x00, 0x00, 0x00, 0x00, 0x00, 0x00, 0x00,
  0x00, 0x00, 0x00, 0x00, 0x00, 0x00, 0x00, 0x00, 0x00, 0x00, 0x00, 0x00,
  0x00, 0x00, 0x00, 0x00, 0x00, 0x00, 0x00, 0x00, 0x00, 0x00, 0x00, 0x00,
  0x00, 0x00, 0x00, 0x00, 0x00, 0x00, 0x00, 0x00, 0x00, 0x00, 0x00, 0x00,
  0x00, 0x00, 0x00, 0x00, 0x00, 0x00, 0x00, 0x00, 0x00, 0x00, 0x00, 0x00,
  0x00, 0x00, 0x00, 0x00, 0x00, 0x00, 0x00, 0x00, 0x10, 0x00, 0x00, 0x00,
  0x63, 0xaa, 0x84, 0x3b, 0x45, 0x93, 0xce, 0x3b, 0x2e, 0xd7, 0x21, 0x3b,
  0xa2, 0xf8, 0x1a, 0x3b, 0xd5, 0xab, 0x2b, 0x3b, 0xec, 0x7b, 0x32, 0x3b,
  0x7f, 0xbc, 0x55, 0x3b, 0xc5, 0xf8, 0x85, 0x3b, 0xda, 0x60, 0xff, 0x3a,
  0xfd, 0x2c, 0x25, 0x3b, 0x83, 0xe1, 0x9b, 0x3b, 0x30, 0x27, 0x3a, 0x3b,
  0x5a, 0x72, 0x24, 0x3b, 0x5e, 0xed, 0x1d, 0x3b, 0x56, 0xc8, 0x72, 0x3b,
  0x8e, 0x2e, 0x6c, 0x3b, 0x1c, 0x00, 0x00, 0x00, 0x73, 0x65, 0x71, 0x75,
  0x65, 0x6e, 0x74, 0x69, 0x61, 0x6c, 0x5f, 0x31, 0x35, 0x2f, 0x6d, 0x79,
  0x43, 0x6f, 0x6e, 0x76, 0x31, 0x2f, 0x63, 0x6f, 0x6e, 0x76, 0x31, 0x64,
  0x00, 0x00, 0x00, 0x00, 0x04, 0x00, 0x00, 0x00, 0x10, 0x00, 0x00, 0x00,
  0x01, 0x00, 0x00, 0x00, 0x02, 0x00, 0x00, 0x00, 0x20, 0x00, 0x00, 0x00,
  0xce, 0xfa, 0xff, 0xff, 0x14, 0x00, 0x00, 0x00, 0xa4, 0x01, 0x00, 0x00,
  0x09, 0x00, 0x00, 0x00, 0x00, 0x00, 0x00, 0x02, 0xac, 0x01, 0x00, 0x00,
  0x44, 0xfa, 0xff, 0xff, 0x08, 0x00, 0x00, 0x00, 0x08, 0x01, 0x00, 0x00,
  0x20, 0x00, 0x00, 0x00, 0x00, 0x00, 0x00, 0x00, 0x00, 0x00, 0x00, 0x00,
  0x00, 0x00, 0x00, 0x00, 0x00, 0x00, 0x00, 0x00, 0x00, 0x00, 0x00, 0x00,
  0x00, 0x00, 0x00, 0x00, 0x00, 0x00, 0x00, 0x00, 0x00, 0x00, 0x00, 0x00,
  0x00, 0x00, 0x00, 0x00, 0x00, 0x00, 0x00, 0x00, 0x00, 0x00, 0x00, 0x00,
  0x00, 0x00, 0x00, 0x00, 0x00, 0x00, 0x00, 0x00, 0x00, 0x00, 0x00, 0x00,
  0x00, 0x00, 0x00, 0x00, 0x00, 0x00, 0x00, 0x00, 0x00, 0x00, 0x00, 0x00,
  0x00, 0x00, 0x00, 0x00, 0x00, 0x00, 0x00, 0x00, 0x00, 0x00, 0x00, 0x00,
  0x00, 0x00, 0x00, 0x00, 0x00, 0x00, 0x00, 0x00, 0x00, 0x00, 0x00, 0x00,
  0x00, 0x00, 0x00, 0x00, 0x00, 0x00, 0x00, 0x00, 0x00, 0x00, 0x00, 0x00,
  0x00, 0x00, 0x00, 0x00, 0x00, 0x00, 0x00, 0x00, 0x00, 0x00, 0x00, 0x00,
  0x00, 0x00, 0x00, 0x00, 0x00, 0x00, 0x00, 0x00, 0x00, 0x00, 0x00, 0x00,
  0x00, 0x00, 0x00, 0x00, 0x00, 0x00, 0x00, 0x00, 0x00, 0x00, 0x00, 0x00,
  0x00, 0x00, 0x00, 0x00, 0x00, 0x00, 0x00, 0x00, 0x00, 0x00, 0x00, 0x00,
  0x00, 0x00, 0x00, 0x00, 0x00, 0x00, 0x00, 0x00, 0x00, 0x00, 0x00, 0x00,
  0x00, 0x00, 0x00, 0x00, 0x00, 0x00, 0x00, 0x00, 0x00, 0x00, 0x00, 0x00,
  0x00, 0x00, 0x00, 0x00, 0x00, 0x00, 0x00, 0x00, 0x00, 0x00, 0x00, 0x00,
  0x00, 0x00, 0x00, 0x00, 0x00, 0x00, 0x00, 0x00, 0x00, 0x00, 0x00, 0x00,
  0x00, 0x00, 0x00, 0x00, 0x00, 0x00, 0x00, 0x00, 0x00, 0x00, 0x00, 0x00,
  0x00, 0x00, 0x00, 0x00, 0x00, 0x00, 0x00, 0x00, 0x00, 0x00, 0x00, 0x00,
  0x00, 0x00, 0x00, 0x00, 0x00, 0x00, 0x00, 0x00, 0x00, 0x00, 0x00, 0x00,
  0x00, 0x00, 0x00, 0x00, 0x00, 0x00, 0x00, 0x00, 0x00, 0x00, 0x00, 0x00,
  0x00, 0x00, 0x00, 0x00, 0x00, 0x00, 0x00, 0x00, 0x20, 0x00, 0x00, 0x00,
  0x40, 0xce, 0xfe, 0x39, 0x34, 0x1f, 0xc1, 0x39, 0xa7, 0xf0, 0x99, 0x39,
  0x4a, 0xbd, 0x23, 0x3a, 0xe5, 0xe8, 0x18, 0x3a, 0x98, 0x0a, 0xa2, 0x39,
  0x49, 0x4e, 0x07, 0x3a, 0xd6, 0x8a, 0xc5, 0x39, 0x5a, 0x6c, 0xc4, 0x39,
  0xc8, 0x71, 0xa8, 0x39, 0xbc, 0xef, 0x20, 0x3a, 0xc4, 0xc5, 0xfb, 0x39,
  0xa1, 0x51, 0x01, 0x3a, 0x94, 0xe3, 0xe6, 0x39, 0x37, 0x26, 0x13, 0x3a,
  0x8d, 0xbb, 0x14, 0x3a, 0xe2, 0x22, 0xd9, 0x39, 0xff, 0xd2, 0xdf, 0x39,
  0x68, 0x8e, 0x14, 0x3a, 0x4a, 0xa7, 0xb2, 0x39, 0x5a, 0x4a, 0x1c, 0x3a,
  0xff, 0x1c, 0x1b, 0x3a, 0x2b, 0x9f, 0x1f, 0x3a, 0x01, 0xec, 0x99, 0x39,
  0x22, 0xa4, 0x03, 0x3a, 0xe8, 0x69, 0x30, 0x3a, 0xc8, 0xe0, 0xd6, 0x39,
  0x85, 0x59, 0x01, 0x3a, 0xdd, 0xee, 0x03, 0x3a, 0xa0, 0xc1, 0xc3, 0x39,
  0x24, 0xc0, 0x24, 0x3a, 0xf6, 0x90, 0xac, 0x39, 0x0c, 0x00, 0x00, 0x00,
  0x6d, 0x79, 0x43, 0x6f, 0x6e, 0x76, 0x30, 0x2f, 0x62, 0x69, 0x61, 0x73,
  0x00, 0x00, 0x00, 0x00, 0x01, 0x00, 0x00, 0x00, 0x20, 0x00, 0x00, 0x00,
  0x96, 0xfc, 0xff, 0xff, 0x14, 0x00, 0x00, 0x00, 0xa4, 0x01, 0x00, 0x00,
  0x08, 0x00, 0x00, 0x00, 0x00, 0x00, 0x00, 0x09, 0xbc, 0x01, 0x00, 0x00,
  0x0c, 0xfc, 0xff, 0xff, 0x08, 0x00, 0x00, 0x00, 0x08, 0x01, 0x00, 0x00,
  0x20, 0x00, 0x00, 0x00, 0x00, 0x00, 0x00, 0x00, 0x00, 0x00, 0x00, 0x00,
  0x00, 0x00, 0x00, 0x00, 0x00, 0x00, 0x00, 0x00, 0x00, 0x00, 0x00, 0x00,
  0x00, 0x00, 0x00, 0x00, 0x00, 0x00, 0x00, 0x00, 0x00, 0x00, 0x00, 0x00,
  0x00, 0x00, 0x00, 0x00, 0x00, 0x00, 0x00, 0x00, 0x00, 0x00, 0x00, 0x00,
  0x00, 0x00, 0x00, 0x00, 0x00, 0x00, 0x00, 0x00, 0x00, 0x00, 0x00, 0x00,
  0x00, 0x00, 0x00, 0x00, 0x00, 0x00, 0x00, 0x00, 0x00, 0x00, 0x00, 0x00,
  0x00, 0x00, 0x00, 0x00, 0x00, 0x00, 0x00, 0x00, 0x00, 0x00, 0x00, 0x00,
  0x00, 0x00, 0x00, 0x00, 0x00, 0x00, 0x00, 0x00, 0x00, 0x00, 0x00, 0x00,
  0x00, 0x00, 0x00, 0x00, 0x00, 0x00, 0x00, 0x00, 0x00, 0x00, 0x00, 0x00,
  0x00, 0x00, 0x00, 0x00, 0x00, 0x00, 0x00, 0x00, 0x00, 0x00, 0x00, 0x00,
  0x00, 0x00, 0x00, 0x00, 0x00, 0x00, 0x00, 0x00, 0x00, 0x00, 0x00, 0x00,
  0x00, 0x00, 0x00, 0x00, 0x00, 0x00, 0x00, 0x00, 0x00, 0x00, 0x00, 0x00,
  0x00, 0x00, 0x00, 0x00, 0x00, 0x00, 0x00, 0x00, 0x00, 0x00, 0x00, 0x00,
  0x00, 0x00, 0x00, 0x00, 0x00, 0x00, 0x00, 0x00, 0x00, 0x00, 0x00, 0x00,
  0x00, 0x00, 0x00, 0x00, 0x00, 0x00, 0x00, 0x00, 0x00, 0x00, 0x00, 0x00,
  0x00, 0x00, 0x00, 0x00, 0x00, 0x00, 0x00, 0x00, 0x00, 0x00, 0x00, 0x00,
  0x00, 0x00, 0x00, 0x00, 0x00, 0x00, 0x00, 0x00, 0x00, 0x00, 0x00, 0x00,
  0x00, 0x00, 0x00, 0x00, 0x00, 0x00, 0x00, 0x00, 0x00, 0x00, 0x00, 0x00,
  0x00, 0x00, 0x00, 0x00, 0x00, 0x00, 0x00, 0x00, 0x00, 0x00, 0x00, 0x00,
  0x00, 0x00, 0x00, 0x00, 0x00, 0x00, 0x00, 0x00, 0x00, 0x00, 0x00, 0x00,
  0x00, 0x00, 0x00, 0x00, 0x00, 0x00, 0x00, 0x00, 0x00, 0x00, 0x00, 0x00,
  0x00, 0x00, 0x00, 0x00, 0x00, 0x00, 0x00, 0x00, 0x20, 0x00, 0x00, 0x00,
  0x2f, 0x31, 0x4f, 0x3b, 0xe3, 0x08, 0x1d, 0x3b, 0x55, 0x59, 0xfa, 0x3a,
  0x89, 0x24, 0x85, 0x3b, 0x63, 0xac, 0x78, 0x3b, 0x11, 0xc3, 0x03, 0x3b,
  0x66, 0x0b, 0x5c, 0x3b, 0x0f, 0xa1, 0x20, 0x3b, 0x1c, 0xb8, 0x1f, 0x3b,
  0xf4, 0xf7, 0x08, 0x3b, 0x10, 0xdd, 0x82, 0x3b, 0xcc, 0xb9, 0x4c, 0x3b,
  0xe1, 0x4e, 0x52, 0x3b, 0x9c, 0xbe, 0x3b, 0x3b, 0x28, 0x4e, 0x6f, 0x3b,
  0x58, 0xe1, 0x71, 0x3b, 0xcc, 0x8f, 0x30, 0x3b, 0xfb, 0xff, 0x35, 0x3b,
  0xec, 0x97, 0x71, 0x3b, 0x18, 0x45, 0x11, 0x3b, 0xdd, 0x2b, 0x7e, 0x3b,
  0xc7, 0x41, 0x7c, 0x3b, 0x63, 0xcb, 0x81, 0x3b, 0xc6, 0x51, 0xfa, 0x3a,
  0xb4, 0x15, 0x56, 0x3b, 0xdb, 0x72, 0x8f, 0x3b, 0xb9, 0xb9, 0x2e, 0x3b,
  0xb6, 0x5b, 0x52, 0x3b, 0x3d, 0x8f, 0x56, 0x3b, 0x49, 0x2d, 0x1f, 0x3b,
  0x04, 0xf7, 0x85, 0x3b, 0xf5, 0x51, 0x0c, 0x3b, 0x1c, 0x00, 0x00, 0x00,
  0x73, 0x65, 0x71, 0x75, 0x65, 0x6e, 0x74, 0x69, 0x61, 0x6c, 0x5f, 0x31,
  0x35, 0x2f, 0x6d, 0x79, 0x43, 0x6f, 0x6e, 0x76, 0x30, 0x2f, 0x63, 0x6f,
  0x6e, 0x76, 0x31, 0x64, 0x00, 0x00, 0x00, 0x00, 0x04, 0x00, 0x00, 0x00,
  0x20, 0x00, 0x00, 0x00, 0x01, 0x00, 0x00, 0x00, 0x02, 0x00, 0x00, 0x00,
  0x04, 0x00, 0x00, 0x00, 0x7a, 0xfe, 0xff, 0xff, 0x14, 0x00, 0x00, 0x00,
  0x14, 0x00, 0x00, 0x00, 0x07, 0x00, 0x00, 0x00, 0x00, 0x00, 0x00, 0x02,
  0x28, 0x00, 0x00, 0x00, 0x6c, 0xfe, 0xff, 0xff, 0x1b, 0x00, 0x00, 0x00,
  0x73, 0x65, 0x71, 0x75, 0x65, 0x6e, 0x74, 0x69, 0x61, 0x6c, 0x5f, 0x31,
  0x35, 0x2f, 0x46, 0x6c, 0x61, 0x74, 0x74, 0x65, 0x6e, 0x2f, 0x43, 0x6f,
  0x6e, 0x73, 0x74, 0x00, 0x01, 0x00, 0x00, 0x00, 0x02, 0x00, 0x00, 0x00,
  0xbe, 0xfe, 0xff, 0xff, 0x14, 0x00, 0x00, 0x00, 0x14, 0x00, 0x00, 0x00,
  0x06, 0x00, 0x00, 0x00, 0x00, 0x00, 0x00, 0x02, 0x34, 0x00, 0x00, 0x00,
  0xb0, 0xfe, 0xff, 0xff, 0x24, 0x00, 0x00, 0x00, 0x73, 0x65, 0x71, 0x75,
  0x65, 0x6e, 0x74, 0x69, 0x61, 0x6c, 0x5f, 0x31, 0x35, 0x2f, 0x6d, 0x79,
  0x43, 0x6f, 0x6e, 0x76, 0x33, 0x2f, 0x63, 0x6f, 0x6e, 0x76, 0x31, 0x64,
  0x2f, 0x53, 0x71, 0x75, 0x65, 0x65, 0x7a, 0x65, 0x00, 0x00, 0x00, 0x00,
  0x01, 0x00, 0x00, 0x00, 0x03, 0x00, 0x00, 0x00, 0x0e, 0xff, 0xff, 0xff,
  0x14, 0x00, 0x00, 0x00, 0x14, 0x00, 0x00, 0x00, 0x05, 0x00, 0x00, 0x00,
  0x00, 0x00, 0x00, 0x02, 0x34, 0x00, 0x00, 0x00, 0x00, 0xff, 0xff, 0xff,
  0x24, 0x00, 0x00, 0x00, 0x73, 0x65, 0x71, 0x75, 0x65, 0x6e, 0x74, 0x69,
  0x61, 0x6c, 0x5f, 0x31, 0x35, 0x2f, 0x6d, 0x79, 0x43, 0x6f, 0x6e, 0x76,
  0x32, 0x2f, 0x63, 0x6f, 0x6e, 0x76, 0x31, 0x64, 0x2f, 0x53, 0x71, 0x75,
  0x65, 0x65, 0x7a, 0x65, 0x00, 0x00, 0x00, 0x00, 0x01, 0x00, 0x00, 0x00,
  0x03, 0x00, 0x00, 0x00, 0x5e, 0xff, 0xff, 0xff, 0x14, 0x00, 0x00, 0x00,
  0x14, 0x00, 0x00, 0x00, 0x04, 0x00, 0x00, 0x00, 0x00, 0x00, 0x00, 0x02,
  0x34, 0x00, 0x00, 0x00, 0x50, 0xff, 0xff, 0xff, 0x24, 0x00, 0x00, 0x00,
  0x73, 0x65, 0x71, 0x75, 0x65, 0x6e, 0x74, 0x69, 0x61, 0x6c, 0x5f, 0x31,
  0x35, 0x2f, 0x6d, 0x79, 0x43, 0x6f, 0x6e, 0x76, 0x31, 0x2f, 0x63, 0x6f,
  0x6e, 0x76, 0x31, 0x64, 0x2f, 0x53, 0x71, 0x75, 0x65, 0x65, 0x7a, 0x65,
  0x00, 0x00, 0x00, 0x00, 0x01, 0x00, 0x00, 0x00, 0x03, 0x00, 0x00, 0x00,
  0xae, 0xff, 0xff, 0xff, 0x14, 0x00, 0x00, 0x00, 0x14, 0x00, 0x00, 0x00,
  0x03, 0x00, 0x00, 0x00, 0x00, 0x00, 0x00, 0x02, 0x34, 0x00, 0x00, 0x00,
  0xa0, 0xff, 0xff, 0xff, 0x24, 0x00, 0x00, 0x00, 0x73, 0x65, 0x71, 0x75,
  0x65, 0x6e, 0x74, 0x69, 0x61, 0x6c, 0x5f, 0x31, 0x35, 0x2f, 0x6d, 0x79,
  0x43, 0x6f, 0x6e, 0x76, 0x30, 0x2f, 0x63, 0x6f, 0x6e, 0x76, 0x31, 0x64,
  0x2f, 0x53, 0x71, 0x75, 0x65, 0x65, 0x7a, 0x65, 0x00, 0x00, 0x00, 0x00,
  0x01, 0x00, 0x00, 0x00, 0x03, 0x00, 0x00, 0x00, 0x00, 0x00, 0x0e, 0x00,
  0x18, 0x00, 0x14, 0x00, 0x13, 0x00, 0x0c, 0x00, 0x08, 0x00, 0x04, 0x00,
  0x0e, 0x00, 0x00, 0x00, 0x18, 0x00, 0x00, 0x00, 0x18, 0x00, 0x00, 0x00,
  0x02, 0x00, 0x00, 0x00, 0x00, 0x00, 0x00, 0x02, 0x3c, 0x00, 0x00, 0x00,
  0x04, 0x00, 0x04, 0x00, 0x04, 0x00, 0x00, 0x00, 0x2b, 0x00, 0x00, 0x00,
  0x73, 0x65, 0x71, 0x75, 0x65, 0x6e, 0x74, 0x69, 0x61, 0x6c, 0x5f, 0x31,
  0x35, 0x2f, 0x6d, 0x79, 0x43, 0x6f, 0x6e, 0x76, 0x30, 0x2f, 0x63, 0x6f,
  0x6e, 0x76, 0x31, 0x64, 0x2f, 0x45, 0x78, 0x70, 0x61, 0x6e, 0x64, 0x44,
  0x69, 0x6d, 0x73, 0x2f, 0x64, 0x69, 0x6d, 0x00, 0x00, 0x00, 0x00, 0x00,
  0x14, 0x00, 0x1c, 0x00, 0x18, 0x00, 0x17, 0x00, 0x10, 0x00, 0x0c, 0x00,
  0x08, 0x00, 0x00, 0x00, 0x00, 0x00, 0x04, 0x00, 0x14, 0x00, 0x00, 0x00,
  0x18, 0x00, 0x00, 0x00, 0x30, 0x00, 0x00, 0x00, 0x4c, 0x00, 0x00, 0x00,
  0x01, 0x00, 0x00, 0x00, 0x00, 0x00, 0x00, 0x09, 0x5c, 0x00, 0x00, 0x00,
  0x03, 0x00, 0x00, 0x00, 0xff, 0xff, 0xff, 0xff, 0x28, 0x00, 0x00, 0x00,
  0x04, 0x00, 0x00, 0x00, 0x0c, 0x00, 0x0c, 0x00, 0x00, 0x00, 0x00, 0x00,
  0x08, 0x00, 0x04, 0x00, 0x0c, 0x00, 0x00, 0x00, 0x08, 0x00, 0x00, 0x00,
  0x10, 0x00, 0x00, 0x00, 0x01, 0x00, 0x00, 0x00, 0xd7, 0xff, 0xff, 0xff,
  0xff, 0xff, 0xff, 0xff, 0x01, 0x00, 0x00, 0x00, 0x36, 0x6a, 0x1d, 0x3e,
  0x17, 0x00, 0x00, 0x00, 0x73, 0x65, 0x72, 0x76, 0x69, 0x6e, 0x67, 0x5f,
  0x64, 0x65, 0x66, 0x61, 0x75, 0x6c, 0x74, 0x5f, 0x69, 0x6e, 0x70, 0x75,
  0x74, 0x3a, 0x30, 0x00, 0x03, 0x00, 0x00, 0x00, 0x01, 0x00, 0x00, 0x00,
  0x28, 0x00, 0x00, 0x00, 0x04, 0x00, 0x00, 0x00, 0x04, 0x00, 0x00, 0x00,
  0x54, 0x00, 0x00, 0x00, 0x34, 0x00, 0x00, 0x00, 0x18, 0x00, 0x00, 0x00,
  0x04, 0x00, 0x00, 0x00, 0xe4, 0xff, 0xff, 0xff, 0x09, 0x00, 0x00, 0x00,
  0x04, 0x00, 0x00, 0x00, 0x00, 0x00, 0x00, 0x09, 0xd8, 0xff, 0xff, 0xff,
  0x16, 0x00, 0x00, 0x00, 0x00, 0x00, 0x00, 0x16, 0x0c, 0x00, 0x10, 0x00,
  0x0f, 0x00, 0x00, 0x00, 0x08, 0x00, 0x04, 0x00, 0x0c, 0x00, 0x00, 0x00,
  0x03, 0x00, 0x00, 0x00, 0x03, 0x00, 0x00, 0x00, 0x00, 0x00, 0x00, 0x03,
  0x0c, 0x00, 0x0c, 0x00, 0x0b, 0x00, 0x00, 0x00, 0x00, 0x00, 0x04, 0x00,
  0x0c, 0x00, 0x00, 0x00, 0x46, 0x00, 0x00, 0x00, 0x00, 0x00, 0x00, 0x46
};
const int g_model_len = 10176;
