/* Copyright 2020 The TensorFlow Authors. All Rights Reserved.

Licensed under the Apache License, Version 2.0 (the "License");
you may not use this file except in compliance with the License.
You may obtain a copy of the License at

    http://www.apache.org/licenses/LICENSE-2.0

Unless required by applicable law or agreed to in writing, software
distributed under the License is distributed on an "AS IS" BASIS,
WITHOUT WARRANTIES OR CONDITIONS OF ANY KIND, either express or implied.
See the License for the specific language governing permissions and
limitations under the License.
==============================================================================*/

// Automatically created from a TensorFlow Lite flatbuffer using the command:
// xxd -i model.tflite > model.cc

// This is a standard TensorFlow Lite model file that has been converted into a
// C data array, so it can be easily compiled into a binary for devices that
// don't have a file system.

// See train/README.md for a full description of the creation process.

#include "model.h"

// Keep model aligned to 8 bytes to guarantee aligned 64-bit accesses.
alignas(8) const unsigned char g_model[] = {
  0x20, 0x00, 0x00, 0x00, 0x54, 0x46, 0x4c, 0x33, 0x00, 0x00, 0x00, 0x00,
  0x14, 0x00, 0x20, 0x00, 0x1c, 0x00, 0x18, 0x00, 0x14, 0x00, 0x10, 0x00,
  0x0c, 0x00, 0x00, 0x00, 0x08, 0x00, 0x04, 0x00, 0x14, 0x00, 0x00, 0x00,
  0x1c, 0x00, 0x00, 0x00, 0x98, 0x00, 0x00, 0x00, 0xc8, 0x00, 0x00, 0x00,
  0x6c, 0x39, 0x00, 0x00, 0x7c, 0x39, 0x00, 0x00, 0x60, 0x4e, 0x00, 0x00,
  0x03, 0x00, 0x00, 0x00, 0x01, 0x00, 0x00, 0x00, 0x10, 0x00, 0x00, 0x00,
  0x0c, 0x00, 0x14, 0x00, 0x10, 0x00, 0x0c, 0x00, 0x08, 0x00, 0x04, 0x00,
  0x0c, 0x00, 0x00, 0x00, 0x10, 0x00, 0x00, 0x00, 0x14, 0x00, 0x00, 0x00,
  0x24, 0x00, 0x00, 0x00, 0x40, 0x00, 0x00, 0x00, 0x00, 0x00, 0x00, 0x00,
  0x00, 0x00, 0x00, 0x00, 0x0f, 0x00, 0x00, 0x00, 0x73, 0x65, 0x72, 0x76,
  0x69, 0x6e, 0x67, 0x5f, 0x64, 0x65, 0x66, 0x61, 0x75, 0x6c, 0x74, 0x00,
  0x01, 0x00, 0x00, 0x00, 0x04, 0x00, 0x00, 0x00, 0xc4, 0xff, 0xff, 0xff,
  0x1c, 0x00, 0x00, 0x00, 0x04, 0x00, 0x00, 0x00, 0x05, 0x00, 0x00, 0x00,
  0x6c, 0x61, 0x73, 0x74, 0x33, 0x00, 0x00, 0x00, 0x01, 0x00, 0x00, 0x00,
  0x04, 0x00, 0x00, 0x00, 0x42, 0xc7, 0xff, 0xff, 0x04, 0x00, 0x00, 0x00,
  0x05, 0x00, 0x00, 0x00, 0x69, 0x6e, 0x70, 0x75, 0x74, 0x00, 0x00, 0x00,
  0x01, 0x00, 0x00, 0x00, 0x0c, 0x00, 0x00, 0x00, 0x08, 0x00, 0x0c, 0x00,
  0x08, 0x00, 0x04, 0x00, 0x08, 0x00, 0x00, 0x00, 0x1e, 0x00, 0x00, 0x00,
  0x04, 0x00, 0x00, 0x00, 0x13, 0x00, 0x00, 0x00, 0x6d, 0x69, 0x6e, 0x5f,
  0x72, 0x75, 0x6e, 0x74, 0x69, 0x6d, 0x65, 0x5f, 0x76, 0x65, 0x72, 0x73,
  0x69, 0x6f, 0x6e, 0x00, 0x1f, 0x00, 0x00, 0x00, 0xa0, 0x38, 0x00, 0x00,
  0x98, 0x38, 0x00, 0x00, 0x70, 0x38, 0x00, 0x00, 0x54, 0x38, 0x00, 0x00,
  0x38, 0x38, 0x00, 0x00, 0x10, 0x38, 0x00, 0x00, 0xfc, 0x37, 0x00, 0x00,
  0xe4, 0x37, 0x00, 0x00, 0xc8, 0x37, 0x00, 0x00, 0xb0, 0x37, 0x00, 0x00,
  0x00, 0x37, 0x00, 0x00, 0xa0, 0x36, 0x00, 0x00, 0x70, 0x33, 0x00, 0x00,
  0x10, 0x33, 0x00, 0x00, 0xec, 0x32, 0x00, 0x00, 0xdc, 0x00, 0x00, 0x00,
  0x8c, 0x00, 0x00, 0x00, 0x84, 0x00, 0x00, 0x00, 0x7c, 0x00, 0x00, 0x00,
  0x74, 0x00, 0x00, 0x00, 0x6c, 0x00, 0x00, 0x00, 0x64, 0x00, 0x00, 0x00,
  0x5c, 0x00, 0x00, 0x00, 0x54, 0x00, 0x00, 0x00, 0x4c, 0x00, 0x00, 0x00,
  0x44, 0x00, 0x00, 0x00, 0x3c, 0x00, 0x00, 0x00, 0x34, 0x00, 0x00, 0x00,
  0x2c, 0x00, 0x00, 0x00, 0x24, 0x00, 0x00, 0x00, 0x04, 0x00, 0x00, 0x00,
  0x0a, 0xc8, 0xff, 0xff, 0x04, 0x00, 0x00, 0x00, 0x10, 0x00, 0x00, 0x00,
  0x32, 0x2e, 0x33, 0x2e, 0x30, 0x00, 0x00, 0x00, 0x00, 0x00, 0x00, 0x00,
  0x00, 0x00, 0x00, 0x00, 0xd0, 0xb3, 0xff, 0xff, 0xd4, 0xb3, 0xff, 0xff,
  0xd8, 0xb3, 0xff, 0xff, 0xdc, 0xb3, 0xff, 0xff, 0xe0, 0xb3, 0xff, 0xff,
  0xe4, 0xb3, 0xff, 0xff, 0xe8, 0xb3, 0xff, 0xff, 0xec, 0xb3, 0xff, 0xff,
  0xf0, 0xb3, 0xff, 0xff, 0xf4, 0xb3, 0xff, 0xff, 0xf8, 0xb3, 0xff, 0xff,
  0xfc, 0xb3, 0xff, 0xff, 0x00, 0xb4, 0xff, 0xff, 0x5a, 0xc8, 0xff, 0xff,
  0x04, 0x00, 0x00, 0x00, 0x40, 0x00, 0x00, 0x00, 0xd6, 0xff, 0xff, 0xff,
  0xe4, 0xff, 0xff, 0xff, 0xfb, 0x03, 0x00, 0x00, 0xdf, 0x00, 0x00, 0x00,
  0x2b, 0x01, 0x00, 0x00, 0xa4, 0x00, 0x00, 0x00, 0xc5, 0x02, 0x00, 0x00,
  0xb3, 0x00, 0x00, 0x00, 0x01, 0x00, 0x00, 0x00, 0xd8, 0x00, 0x00, 0x00,
  0x64, 0x01, 0x00, 0x00, 0x1a, 0x02, 0x00, 0x00, 0xa5, 0x00, 0x00, 0x00,
  0x34, 0x00, 0x00, 0x00, 0x4b, 0x02, 0x00, 0x00, 0x1c, 0x00, 0x00, 0x00,
  0xa6, 0xc8, 0xff, 0xff, 0x04, 0x00, 0x00, 0x00, 0x00, 0x32, 0x00, 0x00,
  0x04, 0x02, 0xf9, 0x00, 0xfd, 0x08, 0x06, 0x07, 0x10, 0xf3, 0x08, 0x07,
  0x12, 0x07, 0xf5, 0x01, 0xf7, 0x06, 0xf2, 0xfa, 0xf9, 0xfb, 0x04, 0xfa,
  0x02, 0xff, 0xf8, 0xf3, 0x11, 0xfb, 0xf8, 0xf8, 0xfc, 0xf8, 0x02, 0x06,
  0xf4, 0xf5, 0xfc, 0xfe, 0xfa, 0xf2, 0x02, 0x05, 0xfe, 0xf1, 0x01, 0xf3,
  0x06, 0xf8, 0xf8, 0x04, 0xf1, 0xfd, 0xf0, 0x01, 0xfa, 0xfc, 0xf4, 0x03,
  0x08, 0xf6, 0xf8, 0x0b, 0x07, 0xf9, 0xf6, 0xf6, 0xe6, 0xff, 0xff, 0x01,
  0x01, 0x1f, 0xf9, 0x04, 0xfc, 0xf7, 0x02, 0xf9, 0x04, 0x01, 0x02, 0xfc,
  0xf4, 0x00, 0xfd, 0xf1, 0xfa, 0xff, 0x05, 0xf6, 0xff, 0x15, 0xf6, 0xfa,
  0xfb, 0xf4, 0xf3, 0xff, 0xfe, 0xf8, 0x00, 0xfc, 0xff, 0xfb, 0xf7, 0xf1,
  0x13, 0xff, 0xf9, 0xf8, 0xfe, 0x21, 0x02, 0xf7, 0xfd, 0xfb, 0xf6, 0xf2,
  0x07, 0x03, 0xf9, 0xf6, 0x02, 0xf7, 0x01, 0xfe, 0xfa, 0xfd, 0x02, 0x07,
  0xf7, 0xfd, 0x03, 0xf5, 0xf5, 0xf2, 0x02, 0xfd, 0xfc, 0xf7, 0x06, 0x09,
  0x02, 0xf7, 0xf6, 0xfd, 0xf4, 0x04, 0xfb, 0xf4, 0x06, 0xfc, 0x0b, 0xfe,
  0x00, 0xff, 0xf6, 0x04, 0x0f, 0xf2, 0xf3, 0x0d, 0x05, 0xfb, 0x03, 0xfc,
  0x06, 0x04, 0xf5, 0x03, 0xf0, 0x07, 0xfb, 0x04, 0xf3, 0xfd, 0xf8, 0xf4,
  0x01, 0xf4, 0xfe, 0xfb, 0xf5, 0x02, 0x07, 0xf9, 0x05, 0x06, 0xf3, 0x07,
  0xfc, 0xd7, 0xf5, 0xf7, 0xfa, 0xfc, 0xfa, 0xfd, 0xfa, 0xf1, 0xf9, 0xf9,
  0x03, 0xf8, 0xf5, 0xf3, 0xf8, 0xf6, 0xfd, 0xfc, 0xff, 0xd3, 0xfe, 0x06,
  0xf7, 0x02, 0xf2, 0xf5, 0x07, 0xf4, 0x05, 0xfc, 0xfa, 0x05, 0xf7, 0x00,
  0xf1, 0xf6, 0x04, 0xfc, 0xfc, 0xf2, 0x0d, 0xf5, 0xf3, 0x03, 0x02, 0xf5,
  0xfb, 0xfe, 0xf6, 0xfc, 0x02, 0x04, 0xef, 0x05, 0xfc, 0xf9, 0xfe, 0x06,
  0x01, 0xf9, 0x09, 0xf9, 0x04, 0xf5, 0xf0, 0xfb, 0x08, 0xf7, 0xf4, 0xf7,
  0x05, 0xed, 0xf8, 0xfc, 0x2a, 0xf8, 0xfe, 0xf3, 0xfe, 0x1b, 0xfd, 0xff,
  0x00, 0xf7, 0xf8, 0xf3, 0x0d, 0x03, 0xfe, 0xf7, 0xfa, 0xf2, 0xf5, 0xf5,
  0xee, 0x03, 0x02, 0x01, 0xfb, 0x09, 0x05, 0xf5, 0xf1, 0x01, 0xfe, 0x00,
  0x0a, 0x03, 0xf3, 0xff, 0xf4, 0xfb, 0x00, 0x03, 0x14, 0xfd, 0xf2, 0xf8,
  0xf7, 0x20, 0x00, 0xfe, 0x01, 0xf2, 0xfc, 0xf8, 0x01, 0xf7, 0x05, 0xfd,
  0xf3, 0xf0, 0xf7, 0x06, 0xe7, 0xf8, 0xf9, 0xf2, 0xf3, 0xf8, 0x0e, 0xf2,
  0x00, 0xf4, 0x06, 0x06, 0xf8, 0xfd, 0xff, 0xf6, 0xf5, 0xf7, 0x02, 0xf5,
  0x20, 0xf7, 0xff, 0xf7, 0x03, 0xef, 0x01, 0xf2, 0xf6, 0xf5, 0x01, 0xf3,
  0xf9, 0x03, 0xf8, 0x03, 0xfb, 0xf8, 0xf4, 0xfe, 0xd8, 0xf9, 0xf9, 0x04,
  0x03, 0xed, 0x03, 0xff, 0x04, 0xfd, 0xff, 0xf7, 0x02, 0x04, 0xfa, 0xff,
  0xf7, 0x08, 0x02, 0xf8, 0xff, 0xf3, 0xf1, 0x00, 0xf5, 0xf9, 0xfc, 0xf3,
  0xf5, 0xf1, 0xf4, 0xfc, 0x05, 0xfe, 0xfa, 0x08, 0x01, 0x00, 0xf4, 0xf1,
  0x02, 0xfb, 0xf8, 0x00, 0xfe, 0x02, 0x05, 0xfb, 0x00, 0x05, 0xfb, 0xf2,
  0x0d, 0x04, 0x07, 0x06, 0xf4, 0xee, 0x04, 0x01, 0xf2, 0xfe, 0x02, 0xf7,
  0x00, 0xff, 0x00, 0xf5, 0x05, 0xf1, 0x06, 0xf5, 0x05, 0x06, 0xf9, 0xf5,
  0xfd, 0xf2, 0x03, 0xf3, 0xff, 0xfd, 0x00, 0xfe, 0xff, 0x1d, 0x00, 0xf8,
  0xf6, 0xf5, 0xf7, 0xff, 0x14, 0x02, 0x04, 0x09, 0xf7, 0xff, 0x03, 0x02,
  0xf1, 0x02, 0xf9, 0x05, 0xf5, 0x40, 0x0b, 0xf9, 0xf3, 0xf7, 0xff, 0x02,
  0x06, 0xf5, 0x01, 0x0d, 0xf8, 0xf6, 0xf5, 0xff, 0x04, 0xf0, 0x03, 0xff,
  0xf7, 0xf0, 0x05, 0xf4, 0xf7, 0x01, 0xf9, 0xfd, 0x02, 0xf0, 0x03, 0xff,
  0xf9, 0x05, 0xff, 0x01, 0x00, 0x04, 0xf9, 0x02, 0xf7, 0xf0, 0xf0, 0xf1,
  0xff, 0x01, 0xfa, 0x01, 0xf7, 0xf5, 0xf7, 0xf7, 0x04, 0x04, 0xf8, 0xf4,
  0x0f, 0x02, 0xf8, 0xf4, 0x06, 0x1a, 0x09, 0xf9, 0x03, 0xfa, 0xfc, 0xff,
  0xf4, 0xf9, 0x01, 0xfb, 0xf2, 0x01, 0x04, 0xf4, 0x03, 0xfa, 0xf3, 0xf8,
  0x06, 0xf8, 0xf3, 0xf1, 0xf4, 0xfa, 0xfb, 0x05, 0x04, 0xf4, 0xf1, 0xfb,
  0xf7, 0x01, 0xf7, 0xfb, 0xf7, 0x06, 0xf0, 0xff, 0x00, 0x34, 0xfa, 0xf0,
  0xf0, 0xf9, 0xfa, 0xfd, 0x00, 0xf1, 0xff, 0x08, 0x01, 0x02, 0x00, 0x00,
  0xef, 0x05, 0x02, 0xf8, 0xfc, 0xf8, 0x02, 0xf6, 0xf5, 0xf8, 0xfd, 0xfe,
  0xfd, 0xf3, 0x02, 0x03, 0xf8, 0xfa, 0x02, 0xf6, 0x08, 0x04, 0xf1, 0xfb,
  0xf5, 0xda, 0xfc, 0xf5, 0xf3, 0xfb, 0xfc, 0x03, 0xfc, 0xf5, 0xf5, 0x01,
  0xf8, 0xf1, 0xf3, 0xf9, 0xe7, 0x03, 0xf6, 0xf5, 0xf4, 0x2a, 0x00, 0xfc,
  0xfb, 0xf2, 0x06, 0xfe, 0xff, 0xf0, 0xff, 0x08, 0xf7, 0xff, 0x04, 0xf8,
  0xf0, 0xfa, 0x00, 0x06, 0xfd, 0xdd, 0x01, 0x06, 0x02, 0x02, 0xf4, 0xf5,
  0x06, 0x03, 0xf2, 0xfd, 0x02, 0xf8, 0x01, 0xf5, 0x10, 0xfd, 0x03, 0xf7,
  0x03, 0xf7, 0xf5, 0x01, 0xf4, 0xf4, 0xfa, 0xf4, 0x03, 0x05, 0xf6, 0x03,
  0xfb, 0xfe, 0xfa, 0xff, 0x01, 0xfd, 0x00, 0xfb, 0xff, 0xff, 0xf9, 0xf8,
  0x05, 0xf5, 0xf4, 0xfe, 0x01, 0x05, 0xf9, 0x05, 0xfc, 0x02, 0xfc, 0xfe,
  0x19, 0xf2, 0xfc, 0x03, 0xfe, 0x18, 0x03, 0xfe, 0xf6, 0xf1, 0xfa, 0x01,
  0xf6, 0xf5, 0x04, 0x06, 0x01, 0xfc, 0xfb, 0xf9, 0xf5, 0xf1, 0xfc, 0xfd,
  0xf5, 0xe3, 0x06, 0xff, 0xf6, 0x01, 0xfb, 0xf2, 0xf8, 0xf1, 0x06, 0xfc,
  0xfc, 0xf9, 0xf6, 0x00, 0xeb, 0xf5, 0xf0, 0xf7, 0xf6, 0xf9, 0x02, 0xff,
  0x05, 0x05, 0xfe, 0x03, 0xf6, 0xfc, 0xfb, 0xfb, 0xfc, 0xf0, 0xfa, 0xf4,
  0x0b, 0xf4, 0xf9, 0xf8, 0x04, 0xeb, 0x07, 0x01, 0x05, 0xfe, 0xf5, 0x03,
  0x07, 0x01, 0xfd, 0x00, 0xf9, 0x05, 0x08, 0xfb, 0x1b, 0x04, 0x01, 0x02,
  0xf5, 0xf8, 0xfc, 0xfe, 0xfc, 0x05, 0xfd, 0x01, 0xfd, 0x04, 0x05, 0xfb,
  0xf7, 0xf1, 0xf7, 0x0d, 0xf6, 0x01, 0x01, 0xfb, 0x0c, 0x09, 0xfd, 0xfb,
  0x02, 0x01, 0xf3, 0x05, 0x02, 0xfa, 0xf6, 0x08, 0xfd, 0x10, 0x04, 0xf2,
  0x12, 0x03, 0xf7, 0xf2, 0x06, 0x04, 0x0b, 0x06, 0xf3, 0x01, 0x07, 0x02,
  0xff, 0xfe, 0x02, 0xfe, 0xf2, 0xf3, 0xfe, 0xf1, 0xf9, 0xfb, 0x05, 0x02,
  0xf4, 0x07, 0xf6, 0xfe, 0xf6, 0xef, 0x04, 0xf2, 0x03, 0xf7, 0xf8, 0x06,
  0x07, 0x09, 0x02, 0xf5, 0x09, 0xfb, 0xfe, 0x03, 0xf3, 0x03, 0x01, 0xf3,
  0xf0, 0x06, 0xfe, 0x03, 0x04, 0xf9, 0x02, 0xff, 0x01, 0xf7, 0x07, 0xf5,
  0xfc, 0xef, 0xef, 0x06, 0x05, 0x05, 0x03, 0xf7, 0xf0, 0xf3, 0xf5, 0x03,
  0x0a, 0xfd, 0xf5, 0xf6, 0x05, 0xf7, 0x01, 0xff, 0xf9, 0xfb, 0xff, 0xf4,
  0xf9, 0xfe, 0x00, 0x05, 0xfa, 0xfe, 0xf4, 0xf0, 0x07, 0x05, 0xf9, 0x05,
  0xfc, 0x01, 0x0a, 0xfc, 0x05, 0xf0, 0xf2, 0xfb, 0xf4, 0x09, 0x00, 0xf4,
  0xfb, 0x05, 0xf3, 0xfb, 0xf6, 0xfd, 0x05, 0x01, 0xf1, 0xfd, 0xfe, 0x00,
  0x00, 0x03, 0x00, 0x01, 0x06, 0x00, 0x02, 0xf3, 0xf3, 0xf1, 0xf2, 0x04,
  0x09, 0xff, 0xf4, 0x00, 0xf6, 0xff, 0x00, 0x04, 0x14, 0x05, 0xfc, 0xfb,
  0xf6, 0x01, 0x02, 0xff, 0xf4, 0xfa, 0x02, 0x05, 0x05, 0x00, 0x01, 0xfb,
  0x03, 0xf1, 0x00, 0x01, 0x04, 0xf8, 0xf6, 0x00, 0xfc, 0x07, 0x00, 0x01,
  0xfd, 0xf7, 0xfc, 0xf4, 0x07, 0x04, 0x05, 0xf6, 0xfb, 0x06, 0x0b, 0x01,
  0xfb, 0xfb, 0xf2, 0xf1, 0xfc, 0x00, 0xfa, 0xf1, 0xfa, 0x04, 0xf4, 0x01,
  0xf9, 0xf6, 0xf4, 0x09, 0xf4, 0x03, 0xfe, 0x05, 0x09, 0xf9, 0xff, 0xf3,
  0x01, 0x09, 0x0a, 0xf3, 0xfc, 0xfc, 0xf4, 0xf5, 0x08, 0xf2, 0x00, 0xf6,
  0xf2, 0xef, 0x01, 0xf2, 0x01, 0xf6, 0xf5, 0x00, 0x01, 0x0b, 0x00, 0x01,
  0xf0, 0xf7, 0x03, 0xf8, 0x0a, 0xf3, 0xf6, 0xf6, 0x05, 0xf7, 0x07, 0xf5,
  0x0d, 0xfc, 0x00, 0xf3, 0x02, 0x04, 0x00, 0xf5, 0xfd, 0x02, 0xfd, 0xf7,
  0xf7, 0xf2, 0x00, 0xf1, 0xf3, 0xf5, 0xff, 0xfb, 0xf5, 0xfc, 0xf2, 0xf6,
  0xff, 0xfe, 0x01, 0x05, 0xfc, 0xfe, 0xfe, 0xfd, 0x03, 0xf5, 0xf7, 0xfd,
  0xf6, 0xf7, 0x00, 0x04, 0x10, 0xf7, 0xef, 0xfa, 0xf4, 0x0a, 0x06, 0xfb,
  0xff, 0xfa, 0xf5, 0xf4, 0xfc, 0xf7, 0xf5, 0x09, 0xff, 0xf7, 0xfc, 0xf5,
  0x0c, 0xf7, 0xf8, 0x04, 0xf0, 0x01, 0xff, 0xff, 0x00, 0xff, 0xf3, 0x02,
  0x0a, 0xf5, 0xf9, 0x05, 0x02, 0xf4, 0xfc, 0xf4, 0x04, 0xfd, 0xf5, 0xf8,
  0x02, 0xff, 0xff, 0xf1, 0x01, 0xf6, 0xf6, 0xfe, 0x03, 0xf7, 0x01, 0x04,
  0x06, 0xf3, 0x0c, 0xf3, 0xff, 0xfd, 0xf2, 0xf2, 0xf6, 0x10, 0x05, 0xf3,
  0xf0, 0xfc, 0xf4, 0xfe, 0xfd, 0xfd, 0x00, 0xf6, 0xf9, 0xfa, 0x0f, 0xff,
  0xfc, 0xff, 0xf9, 0xf7, 0xf9, 0x02, 0xfd, 0x00, 0xf4, 0x06, 0xf7, 0x01,
  0x01, 0xf5, 0x01, 0x01, 0xfd, 0xef, 0x0b, 0xfb, 0x05, 0x04, 0x02, 0x00,
  0xf7, 0x0e, 0x04, 0xf2, 0xf4, 0xf1, 0xfe, 0x06, 0x07, 0xfb, 0x05, 0x03,
  0xfd, 0xfc, 0x0d, 0xfd, 0x0c, 0x04, 0xfb, 0x03, 0xf7, 0x13, 0x03, 0xfe,
  0x00, 0xfd, 0xfb, 0xff, 0xfe, 0xfb, 0xf9, 0x01, 0xf3, 0xf8, 0x0e, 0xf2,
  0x01, 0x05, 0xef, 0xf2, 0xf4, 0x16, 0x02, 0xf8, 0xef, 0xf7, 0xfa, 0x02,
  0x0d, 0xf9, 0xf9, 0xfb, 0xf6, 0x01, 0x10, 0xff, 0x18, 0xf9, 0x04, 0x06,
  0xfd, 0xf9, 0x05, 0x05, 0xf5, 0xf4, 0xf1, 0xf3, 0xfc, 0xf8, 0xfa, 0xff,
  0xfb, 0xf8, 0x02, 0x04, 0x18, 0xf5, 0xf9, 0xf6, 0xfc, 0x0c, 0xfc, 0x01,
  0xf4, 0x03, 0x00, 0x05, 0x0b, 0xf6, 0xf5, 0x00, 0xff, 0x07, 0xf7, 0xf8,
  0xfa, 0xf3, 0xff, 0xf1, 0xf1, 0xfc, 0xfb, 0x05, 0xef, 0xf3, 0xf0, 0xf1,
  0x0d, 0xf8, 0x00, 0xfa, 0xf3, 0x00, 0x0d, 0xfb, 0x02, 0xfb, 0xf6, 0x00,
  0x01, 0xee, 0x06, 0x04, 0x02, 0xf1, 0xf1, 0x02, 0x09, 0xf8, 0xfa, 0x06,
  0xff, 0xfb, 0x0f, 0x01, 0xf9, 0xf6, 0xfc, 0xf2, 0x00, 0x13, 0x01, 0xfa,
  0xfd, 0xfd, 0x05, 0x04, 0x04, 0x05, 0xf7, 0xf3, 0x02, 0x09, 0x09, 0xfe,
  0xfc, 0xff, 0x02, 0xf3, 0xf8, 0x06, 0xfe, 0xfe, 0x02, 0xf5, 0xfc, 0x02,
  0xfb, 0xfd, 0xfa, 0xfe, 0xf6, 0xfe, 0x11, 0x02, 0xea, 0xf7, 0xf6, 0x04,
  0xf6, 0x0e, 0x00, 0xf3, 0xf9, 0xf9, 0x04, 0xfb, 0x07, 0xf1, 0x02, 0x04,
  0xf9, 0xfe, 0x0e, 0x02, 0xf4, 0xf0, 0xf3, 0x04, 0x05, 0x05, 0x01, 0xfa,
  0xfc, 0xf0, 0xf3, 0xf5, 0x08, 0x04, 0xfc, 0x06, 0xf6, 0xed, 0x0e, 0xf7,
  0x05, 0x01, 0xf3, 0x03, 0x02, 0xff, 0x04, 0xef, 0x03, 0xf4, 0x05, 0xf3,
  0x04, 0xf3, 0x00, 0x09, 0xf3, 0xfe, 0x09, 0xfd, 0xf7, 0x02, 0x02, 0x04,
  0xf7, 0x0d, 0x01, 0x03, 0x04, 0xf4, 0x05, 0x04, 0x07, 0x01, 0xfa, 0xf2,
  0xff, 0x04, 0x04, 0xf5, 0x0c, 0xf1, 0xfe, 0x03, 0x03, 0xfe, 0x00, 0xf8,
  0xf0, 0xf4, 0x02, 0xf7, 0x0e, 0xf9, 0xf2, 0xf1, 0x01, 0x06, 0xff, 0xf5,
  0xf4, 0xf6, 0xf6, 0xf7, 0xfc, 0xf7, 0xfa, 0xfc, 0xf4, 0xf2, 0xf7, 0xfa,
  0x03, 0xf1, 0x03, 0xf8, 0x04, 0x02, 0x09, 0x00, 0xea, 0xfd, 0xf4, 0x05,
  0x03, 0xff, 0xff, 0xf4, 0xf5, 0x05, 0xf1, 0xfa, 0x06, 0xf8, 0xfb, 0x04,
  0xf6, 0xf5, 0x07, 0xf8, 0x08, 0xfc, 0xf9, 0x01, 0x05, 0x07, 0xfc, 0xff,
  0xff, 0xf9, 0xf6, 0xf9, 0xf8, 0x04, 0xf5, 0xf4, 0xfb, 0x00, 0x05, 0x02,
  0x0c, 0xfb, 0xf8, 0xf6, 0x01, 0xef, 0x03, 0x04, 0x00, 0x00, 0x03, 0xf5,
  0x03, 0xfc, 0xf6, 0x05, 0xf2, 0xf4, 0x10, 0x06, 0x04, 0xf7, 0x02, 0xf2,
  0x05, 0x04, 0x03, 0xff, 0xf0, 0xfc, 0xf7, 0x00, 0x07, 0xfc, 0xff, 0x04,
  0x05, 0xf5, 0x0b, 0xf7, 0x02, 0xfd, 0xfa, 0xfc, 0x04, 0x07, 0xf9, 0xf6,
  0xf7, 0xf1, 0xf0, 0x05, 0xf2, 0xf6, 0x08, 0x05, 0x09, 0x11, 0x03, 0x0e,
  0x36, 0xf9, 0xf7, 0x02, 0x12, 0x02, 0xfa, 0xf7, 0x12, 0x00, 0x0c, 0x04,
  0x08, 0x03, 0xff, 0xf5, 0xfa, 0x29, 0x04, 0xf4, 0xf4, 0xfe, 0x01, 0x02,
  0xf8, 0x00, 0x05, 0x08, 0x02, 0xf3, 0xfb, 0x05, 0xf6, 0x05, 0x0a, 0x0e,
  0x0b, 0x08, 0xf8, 0x07, 0x10, 0x01, 0x05, 0xfe, 0x00, 0x02, 0xf8, 0x09,
  0x04, 0x04, 0x03, 0xfc, 0xf6, 0x01, 0xff, 0xfb, 0x0a, 0x0a, 0xfc, 0x0c,
  0xd8, 0xfe, 0x04, 0x0a, 0x0b, 0x0f, 0xff, 0x07, 0x01, 0xfc, 0x03, 0xf9,
  0xfc, 0x07, 0x0a, 0x0f, 0xfe, 0x0f, 0xfc, 0xfe, 0xf8, 0xfd, 0x01, 0x09,
  0x04, 0xef, 0xf9, 0xfd, 0x05, 0xf8, 0xfc, 0x07, 0x0d, 0x0d, 0xff, 0xf7,
  0xfe, 0xfd, 0x07, 0xf9, 0xdd, 0xf8, 0xf0, 0x04, 0x05, 0xe2, 0xfe, 0x00,
  0x08, 0xf8, 0x0c, 0xf7, 0x02, 0xfb, 0x09, 0xfb, 0xfd, 0xe9, 0x10, 0xfc,
  0x0b, 0x00, 0xf4, 0xf8, 0x07, 0x03, 0x03, 0x08, 0xfd, 0xfa, 0x05, 0xfa,
  0xf1, 0x00, 0x09, 0x10, 0x0c, 0xfd, 0x01, 0x05, 0xf8, 0x01, 0xfb, 0x0c,
  0x0a, 0xfb, 0xf8, 0x01, 0xff, 0xfa, 0x00, 0x01, 0x04, 0x02, 0xfc, 0xfb,
  0x02, 0xfa, 0x0d, 0x07, 0xdb, 0x03, 0xf0, 0xf8, 0x0c, 0xf5, 0x04, 0xfc,
  0xfb, 0x01, 0x05, 0x08, 0x01, 0x07, 0xfd, 0x34, 0x0a, 0x00, 0x03, 0x0c,
  0x2a, 0xfb, 0x04, 0x06, 0xfd, 0x0e, 0x05, 0x08, 0xfe, 0x0a, 0x00, 0x02,
  0x07, 0x05, 0xff, 0xfd, 0x0d, 0x07, 0xfe, 0x05, 0x13, 0xfb, 0x08, 0x0a,
  0xfc, 0xf3, 0xf9, 0xfa, 0x01, 0xff, 0x02, 0x06, 0x04, 0x0a, 0x06, 0x0a,
  0xfb, 0x07, 0xff, 0x0a, 0x00, 0xf9, 0xf6, 0xfb, 0x0f, 0x0e, 0x04, 0x03,
  0xf8, 0xf9, 0xfa, 0x02, 0xfb, 0x03, 0xfd, 0x16, 0x0e, 0xfa, 0x13, 0x0e,
  0x04, 0x03, 0xff, 0x04, 0x0c, 0x0b, 0x16, 0xf5, 0xf9, 0x03, 0x06, 0xfe,
  0x0b, 0x01, 0xfa, 0x0d, 0xfd, 0xfb, 0x14, 0x04, 0x0c, 0xfd, 0xfb, 0x0d,
  0xfc, 0x28, 0xfd, 0x03, 0x0b, 0x02, 0x0b, 0x05, 0x07, 0x07, 0xfa, 0xff,
  0xf9, 0xed, 0x0b, 0x09, 0x13, 0x0c, 0xf9, 0x0c, 0xf7, 0x09, 0x00, 0xf6,
  0x0c, 0x08, 0x00, 0x07, 0xe6, 0x0d, 0x04, 0x2c, 0x0c, 0x0b, 0xfe, 0x0a,
  0xd4, 0xfa, 0xf2, 0x05, 0x0a, 0xfb, 0xf8, 0xfe, 0xf8, 0x0a, 0xfc, 0x0e,
  0xf9, 0xf5, 0x0c, 0x1b, 0xfc, 0x05, 0x03, 0x0d, 0x0a, 0x05, 0x02, 0x08,
  0xfc, 0x13, 0xff, 0x03, 0xfd, 0xfe, 0xfd, 0x0a, 0x0f, 0x0a, 0xfc, 0x4e,
  0x08, 0x04, 0x15, 0x0a, 0xfb, 0x0b, 0xef, 0x02, 0xff, 0x10, 0xf7, 0xfd,
  0xfe, 0x04, 0x0c, 0xfd, 0x0d, 0x0f, 0x04, 0x08, 0x0f, 0x00, 0x07, 0xfe,
  0xd8, 0x04, 0xf9, 0x04, 0x03, 0xf7, 0x0f, 0x08, 0xfd, 0xfe, 0xff, 0x0f,
  0x08, 0x0e, 0x0d, 0x0b, 0x0f, 0xf3, 0xfe, 0xfd, 0x19, 0x02, 0xf7, 0xfd,
  0xfe, 0xfd, 0x02, 0x09, 0xf7, 0x05, 0x02, 0xfc, 0x01, 0xfe, 0xfc, 0x0d,
  0x0a, 0xf5, 0x01, 0xfe, 0x03, 0x01, 0xf7, 0x07, 0x08, 0x01, 0x0b, 0xf2,
  0x0a, 0xfa, 0x04, 0xf9, 0xfd, 0xfd, 0x10, 0xfa, 0xff, 0x0b, 0x14, 0xfb,
  0x26, 0x07, 0xf9, 0x0e, 0x02, 0xd3, 0x0b, 0xfc, 0x08, 0x0a, 0x03, 0xff,
  0x13, 0x0f, 0x00, 0xff, 0xfb, 0x07, 0x01, 0x07, 0x05, 0x04, 0x03, 0x08,
  0xff, 0xe3, 0x12, 0xf4, 0x04, 0xf8, 0xfa, 0x07, 0x12, 0xfe, 0x08, 0x1e,
  0xfd, 0x1e, 0xfe, 0x05, 0x10, 0x03, 0xfe, 0x09, 0xfb, 0x09, 0xfa, 0xf6,
  0x00, 0x0d, 0x01, 0xfc, 0x09, 0x07, 0x0c, 0xe0, 0x05, 0xfc, 0x00, 0x0a,
  0xe6, 0x0b, 0x05, 0x00, 0xfb, 0xcc, 0x0e, 0xfa, 0x00, 0xff, 0x00, 0x00,
  0x00, 0x0e, 0x0f, 0x07, 0x09, 0x0b, 0xfc, 0x06, 0xfc, 0xff, 0xf3, 0x08,
  0x01, 0xd7, 0x06, 0xfd, 0x06, 0x06, 0x02, 0x0e, 0x07, 0x0f, 0x05, 0x09,
  0xfb, 0xff, 0x06, 0x0d, 0x06, 0x0b, 0xfe, 0x01, 0x06, 0xd8, 0xf7, 0x03,
  0xff, 0x0d, 0xfa, 0x02, 0xfb, 0x06, 0x0e, 0xfc, 0x0e, 0x00, 0xfd, 0xf9,
  0x14, 0xfb, 0x0a, 0x03, 0x01, 0x48, 0xfd, 0xfe, 0x0e, 0x04, 0xfc, 0x04,
  0x01, 0xff, 0x00, 0x0b, 0xf6, 0x0d, 0x06, 0x06, 0xfc, 0x04, 0x03, 0x02,
  0x08, 0xcf, 0x1a, 0x07, 0x03, 0x0a, 0x07, 0xfb, 0x00, 0xf8, 0x0d, 0x11,
  0x0b, 0x01, 0x03, 0x05, 0xd5, 0x05, 0xfd, 0xfa, 0x0c, 0xda, 0x02, 0x04,
  0xfe, 0x01, 0x08, 0xfd, 0x0f, 0x04, 0x0d, 0xf7, 0xfe, 0xf2, 0x0e, 0x02,
  0xfe, 0xfd, 0x00, 0x02, 0xff, 0xfd, 0x10, 0x07, 0xff, 0xfd, 0x03, 0x06,
  0x00, 0xfb, 0x05, 0x30, 0x06, 0xfc, 0x11, 0x07, 0x2d, 0x00, 0xf4, 0x04,
  0x04, 0x19, 0x02, 0xfb, 0xf6, 0xfc, 0x0c, 0x04, 0x03, 0x06, 0xfa, 0xf1,
  0xf7, 0xfd, 0x0a, 0xfb, 0xde, 0x00, 0x0c, 0x01, 0xfc, 0x0d, 0xf9, 0x07,
  0xfc, 0x00, 0x06, 0xff, 0x0e, 0xfe, 0xfc, 0x0e, 0xfb, 0xfc, 0x16, 0x0d,
  0x11, 0x0e, 0x07, 0x09, 0x06, 0x13, 0x12, 0xfc, 0xfa, 0xfc, 0xfc, 0xfd,
  0x07, 0x05, 0xff, 0xfb, 0x06, 0x0d, 0x04, 0x02, 0x10, 0x0a, 0xf7, 0x01,
  0x0c, 0x0c, 0x06, 0xfd, 0x05, 0x0e, 0xf6, 0xff, 0x15, 0x06, 0x07, 0x04,
  0x06, 0x13, 0x06, 0x0b, 0x02, 0x08, 0x03, 0xfe, 0x0b, 0x31, 0x06, 0x01,
  0xfb, 0x06, 0x09, 0x06, 0x03, 0xff, 0xfe, 0xfe, 0xff, 0x03, 0x09, 0x0b,
  0x03, 0xfe, 0xfe, 0x06, 0x07, 0xf4, 0x19, 0x09, 0xf7, 0x0d, 0xf5, 0xfb,
  0xf2, 0xfc, 0x0e, 0x0c, 0xf8, 0x09, 0xff, 0xfc, 0xf3, 0xff, 0x06, 0x02,
  0xfc, 0xe9, 0x1d, 0xfb, 0x07, 0x0e, 0x04, 0x04, 0x0f, 0xfe, 0x07, 0x10,
  0x06, 0x02, 0x0d, 0x09, 0xf8, 0xfc, 0xfb, 0x0e, 0xf9, 0xd5, 0xfe, 0x09,
  0xfc, 0x06, 0x04, 0x00, 0x0c, 0x01, 0x01, 0x08, 0xfb, 0x03, 0x05, 0x0f,
  0x06, 0x0a, 0xff, 0xfb, 0x0b, 0xf5, 0x03, 0x02, 0x08, 0xfa, 0x03, 0x01,
  0x01, 0x01, 0x09, 0x05, 0xfd, 0xf5, 0x09, 0x03, 0xe9, 0xf8, 0xfc, 0xf5,
  0x0a, 0xff, 0xfb, 0xfe, 0x09, 0xf8, 0xfa, 0x0a, 0x05, 0xf2, 0x08, 0x05,
  0xfb, 0x14, 0xf9, 0x08, 0x01, 0x10, 0x03, 0x06, 0x07, 0x0c, 0x03, 0xfa,
  0x07, 0x00, 0xfe, 0x04, 0x09, 0xf3, 0xfa, 0xf9, 0xfc, 0xec, 0x08, 0x03,
  0x09, 0xfe, 0xf3, 0x02, 0xff, 0x0c, 0x02, 0x06, 0x0a, 0xf5, 0xf6, 0xf8,
  0x0b, 0xf3, 0xfe, 0x0b, 0xf7, 0x06, 0x07, 0x07, 0x29, 0xfa, 0xf1, 0xf8,
  0x00, 0xfb, 0x08, 0xfb, 0x08, 0x01, 0x02, 0xfa, 0x04, 0xf7, 0xfd, 0x10,
  0x04, 0xef, 0x0e, 0xfd, 0xfd, 0xfe, 0xf9, 0x01, 0x03, 0xf9, 0x03, 0x02,
  0x04, 0x09, 0xfe, 0xfe, 0xff, 0xfa, 0xf9, 0xfa, 0xfc, 0xff, 0x0f, 0x02,
  0xfd, 0xfd, 0xfb, 0x07, 0x01, 0x0d, 0x24, 0xf9, 0x03, 0x0a, 0xf8, 0xf5,
  0xfd, 0x00, 0x04, 0xfd, 0xf9, 0xff, 0x0c, 0xfb, 0x06, 0xfa, 0xf4, 0xf7,
  0xf5, 0xff, 0x11, 0xff, 0xfe, 0xfd, 0x06, 0xff, 0x09, 0x06, 0x08, 0x11,
  0xf5, 0xf9, 0xfc, 0xfb, 0x3c, 0x00, 0xfa, 0x03, 0xfd, 0xd3, 0xf9, 0xf6,
  0xf9, 0x04, 0x02, 0xfb, 0x13, 0xf4, 0xfd, 0x00, 0xf8, 0x06, 0x08, 0xfe,
  0x05, 0xfa, 0xfc, 0xf9, 0xfb, 0x1d, 0xec, 0xfb, 0x0a, 0xf7, 0x02, 0xfa,
  0xff, 0xf5, 0xf8, 0x0d, 0xf9, 0x04, 0xff, 0xf7, 0xf9, 0x04, 0xfd, 0xf5,
  0xfb, 0x01, 0xf7, 0x07, 0xf6, 0xfa, 0x06, 0x08, 0x09, 0x05, 0x01, 0xf6,
  0x09, 0x02, 0x09, 0xfc, 0x0e, 0x06, 0xf3, 0x08, 0x02, 0x04, 0x00, 0x0b,
  0xfa, 0xf6, 0xfa, 0xfc, 0xfe, 0xf6, 0x03, 0x06, 0xf6, 0x05, 0x00, 0xfa,
  0x09, 0x01, 0xf1, 0xf7, 0x03, 0xfc, 0x02, 0x07, 0x02, 0x02, 0xf3, 0x08,
  0xfd, 0xfd, 0xfe, 0x0b, 0xfa, 0xf6, 0x00, 0x03, 0x09, 0xf9, 0xf8, 0xff,
  0xfc, 0x08, 0x02, 0x07, 0xfc, 0x04, 0xfc, 0x00, 0x0f, 0xf7, 0xfa, 0x06,
  0xff, 0xf5, 0x10, 0xf9, 0x17, 0x05, 0x04, 0xfd, 0xf6, 0x3e, 0xf4, 0xfe,
  0x03, 0xf6, 0xfe, 0x00, 0xfc, 0xf8, 0x01, 0x0a, 0xff, 0xf8, 0xfb, 0xfa,
  0x08, 0xff, 0xff, 0xfb, 0x03, 0x02, 0xf7, 0x04, 0xf6, 0xf7, 0x05, 0xfa,
  0xfc, 0x04, 0x08, 0x0a, 0xfe, 0x01, 0x0c, 0xfe, 0xf7, 0xfa, 0xf0, 0xf8,
  0x01, 0x05, 0xfe, 0x0b, 0x08, 0x02, 0xfc, 0xfd, 0x08, 0x05, 0xfe, 0x0b,
  0x0a, 0xff, 0x0f, 0x07, 0x21, 0x01, 0x05, 0xf7, 0x07, 0xee, 0x05, 0xff,
  0x00, 0xfc, 0xfd, 0x09, 0x02, 0xff, 0xfc, 0x08, 0x08, 0x03, 0xfc, 0xfb,
  0xf5, 0x03, 0xfd, 0xf5, 0x05, 0xff, 0x21, 0x05, 0x09, 0x06, 0xf8, 0x06,
  0xfc, 0xfa, 0x05, 0xfa, 0xfb, 0x07, 0x0d, 0x01, 0x0c, 0xf7, 0xfa, 0x03,
  0xfb, 0x12, 0xdf, 0xf9, 0x05, 0x04, 0x04, 0xfe, 0x01, 0xfc, 0xf9, 0x00,
  0xfa, 0x0d, 0x0b, 0xfb, 0x13, 0xf5, 0xfe, 0x00, 0xf6, 0xf5, 0x0e, 0xf5,
  0x00, 0x07, 0xfd, 0xfa, 0x0a, 0x03, 0x02, 0x0e, 0xff, 0x00, 0x05, 0xf4,
  0x12, 0x0a, 0x03, 0x0a, 0x04, 0x0f, 0xf6, 0xfe, 0xf7, 0xf4, 0xf6, 0x03,
  0x0e, 0xf3, 0xf4, 0x04, 0xfc, 0xf7, 0x02, 0xf8, 0x06, 0xf8, 0xfb, 0xf5,
  0xf8, 0x3b, 0x0d, 0x05, 0xf7, 0xfa, 0xf8, 0xf3, 0x07, 0xfe, 0xff, 0xfc,
  0x05, 0xfd, 0x06, 0xf9, 0x0e, 0xf9, 0xef, 0x04, 0x02, 0x36, 0x0f, 0xfb,
  0xfe, 0xf5, 0xff, 0xff, 0xef, 0x03, 0x07, 0x0c, 0xfc, 0xfb, 0xfd, 0x09,
  0x28, 0x02, 0xf5, 0x06, 0x04, 0x10, 0xf9, 0x06, 0x04, 0x08, 0xf9, 0x06,
  0xf4, 0xf4, 0x05, 0x01, 0x01, 0xf3, 0xff, 0xfa, 0x38, 0x08, 0x03, 0xf7,
  0x09, 0xf7, 0x13, 0xf7, 0x0a, 0xf9, 0x03, 0xf5, 0x0d, 0xfe, 0xfa, 0x0b,
  0x08, 0xf7, 0xff, 0x02, 0xec, 0xfd, 0xf7, 0xf6, 0x06, 0xf6, 0xe4, 0xfa,
  0x0a, 0xf4, 0xf2, 0xfc, 0x03, 0xfc, 0xf9, 0x10, 0x00, 0xf8, 0x07, 0x00,
  0x04, 0xf9, 0xf4, 0xfe, 0xfb, 0x1c, 0x19, 0x03, 0x04, 0xfc, 0xf8, 0xf4,
  0x06, 0x06, 0x03, 0xfe, 0xf9, 0x01, 0x0e, 0xf7, 0x04, 0xf9, 0x03, 0x03,
  0x09, 0xbb, 0xfb, 0x04, 0xfc, 0xf7, 0xff, 0xfe, 0x0b, 0x05, 0xf5, 0xfd,
  0x06, 0xff, 0x09, 0xfd, 0x07, 0x02, 0x01, 0xf6, 0x01, 0x15, 0x01, 0xfe,
  0x06, 0x06, 0xf3, 0xff, 0x02, 0xf9, 0xf7, 0x08, 0xf8, 0x0a, 0x0f, 0x02,
  0xe2, 0xf7, 0xf4, 0xfa, 0x06, 0x07, 0x18, 0x05, 0x0b, 0xfc, 0x01, 0xf9,
  0x0f, 0xfc, 0xf9, 0x08, 0x06, 0xff, 0xff, 0x03, 0xe5, 0x08, 0xf7, 0xfd,
  0xf5, 0xf1, 0x06, 0xfb, 0xff, 0xff, 0xf3, 0xfa, 0xf8, 0x07, 0xff, 0xfc,
  0x03, 0x04, 0x11, 0xf5, 0x10, 0x00, 0xf9, 0x0a, 0xfd, 0xf8, 0xfd, 0x00,
  0xf6, 0x08, 0xf5, 0x08, 0x03, 0x01, 0xf9, 0x0b, 0xfb, 0xfc, 0x12, 0x07,
  0x21, 0xff, 0x03, 0xfd, 0x07, 0xbd, 0x15, 0x00, 0x02, 0xf9, 0x03, 0xf6,
  0x00, 0x07, 0xf7, 0x12, 0x05, 0x0b, 0x11, 0xf6, 0xf0, 0x07, 0xf8, 0xf9,
  0x01, 0x23, 0x0a, 0x08, 0x05, 0xfd, 0xf2, 0x06, 0x01, 0x01, 0x00, 0x07,
  0xfa, 0xf6, 0x0c, 0xfa, 0x0c, 0xf9, 0xf9, 0xf5, 0x06, 0xeb, 0x04, 0x03,
  0xfa, 0x04, 0xfe, 0xf6, 0x02, 0x07, 0x03, 0x0a, 0xf6, 0x08, 0x0c, 0x01,
  0x0b, 0x02, 0xf5, 0xf8, 0xfd, 0xc7, 0xeb, 0xf8, 0xf4, 0x02, 0x05, 0xff,
  0x09, 0xf1, 0xfc, 0x03, 0xf8, 0x05, 0x11, 0xf5, 0x05, 0xfb, 0xfa, 0xf9,
  0x01, 0x12, 0x03, 0xfe, 0xfe, 0xf9, 0xf3, 0xf8, 0xf9, 0xff, 0x05, 0x06,
  0x00, 0x02, 0x0c, 0x06, 0xfd, 0xfe, 0xfd, 0x03, 0xfc, 0x04, 0xeb, 0x09,
  0xf7, 0x04, 0xf8, 0x08, 0x07, 0x00, 0xff, 0x11, 0xfe, 0xf2, 0x0c, 0x00,
  0xef, 0x09, 0x03, 0xf5, 0xfc, 0x15, 0x0a, 0xf8, 0xfd, 0x07, 0x01, 0x08,
  0x05, 0xf5, 0xfb, 0x10, 0x07, 0x06, 0x0d, 0x04, 0xed, 0x02, 0x01, 0x07,
  0xf6, 0x1d, 0xe8, 0xfb, 0xfb, 0xfd, 0xf5, 0x08, 0xfc, 0xfc, 0xf3, 0xf9,
  0x01, 0xfc, 0xf8, 0x04, 0xd9, 0xf7, 0x04, 0xf3, 0xf4, 0xef, 0xfc, 0x00,
  0xfe, 0xf0, 0x01, 0x03, 0xff, 0xfa, 0xfc, 0x04, 0x08, 0x03, 0x0a, 0xfb,
  0xf3, 0x02, 0xef, 0xfd, 0x00, 0xef, 0x01, 0xf8, 0xff, 0xf9, 0xfa, 0xfb,
  0xf8, 0xf6, 0xf8, 0xf6, 0xfb, 0xfb, 0x03, 0xf9, 0xf1, 0x07, 0xfa, 0xf9,
  0x00, 0xfe, 0x08, 0xf2, 0xf0, 0xf9, 0x03, 0x00, 0x02, 0x06, 0x06, 0x05,
  0xfc, 0x03, 0xfd, 0xf9, 0x19, 0xfc, 0xf5, 0xf4, 0xf4, 0xe5, 0xf1, 0x04,
  0xf4, 0x04, 0x01, 0xfb, 0x0e, 0xfb, 0xfb, 0x0b, 0xf6, 0xf5, 0x02, 0x05,
  0x06, 0xf5, 0xf1, 0xf9, 0xfa, 0xfa, 0x00, 0xfa, 0xfc, 0x07, 0xf1, 0xfc,
  0xf9, 0x07, 0xf6, 0x05, 0xfa, 0xf9, 0xfa, 0xfc, 0x0e, 0xf7, 0xf1, 0x09,
  0xf2, 0xea, 0x1d, 0xf9, 0x02, 0x05, 0x03, 0x02, 0x07, 0x07, 0x04, 0x04,
  0x08, 0x00, 0xfd, 0x01, 0x01, 0xf3, 0xf2, 0xfa, 0x02, 0x03, 0x07, 0xf7,
  0x04, 0xf7, 0xf8, 0x00, 0xff, 0xfb, 0xfa, 0xfd, 0xf7, 0x07, 0xf5, 0xf6,
  0x15, 0x03, 0xfc, 0xf5, 0xf6, 0xd5, 0xfe, 0xfe, 0x02, 0x05, 0xfa, 0xf6,
  0x22, 0xfe, 0x02, 0x0f, 0x06, 0x08, 0xf3, 0xf2, 0x05, 0xfd, 0xf7, 0xf6,
  0xf3, 0x0a, 0xe9, 0xff, 0x00, 0xf3, 0xf5, 0x01, 0x04, 0x00, 0xf5, 0xf8,
  0x01, 0x02, 0xff, 0xf4, 0x05, 0xf5, 0xfd, 0xf8, 0xfe, 0x13, 0xea, 0x01,
  0xfb, 0xf4, 0x05, 0xf1, 0x04, 0x06, 0x00, 0x00, 0xf4, 0x02, 0x05, 0xf9,
  0xeb, 0x04, 0xf4, 0x05, 0xf2, 0xeb, 0xfe, 0xf1, 0xf3, 0xf4, 0xfd, 0xfb,
  0xf6, 0xfa, 0xf9, 0xf9, 0x05, 0xf8, 0xf7, 0xfc, 0x01, 0xfe, 0x00, 0x04,
  0x05, 0x1c, 0xfe, 0xfe, 0x01, 0xfb, 0xfa, 0xfb, 0x09, 0xfa, 0xfd, 0xf6,
  0x00, 0x01, 0xfd, 0xfc, 0x04, 0x05, 0xef, 0x07, 0xfa, 0x04, 0x08, 0xfe,
  0xf9, 0x04, 0xfa, 0x00, 0x1d, 0x04, 0xf5, 0x03, 0xfe, 0xfa, 0x02, 0xff,
  0x33, 0xfc, 0x03, 0x01, 0xf9, 0x28, 0xef, 0xfd, 0xf4, 0xf4, 0xf6, 0x05,
  0x0d, 0xf9, 0xf7, 0xfb, 0x01, 0xf6, 0xef, 0xfa, 0xf3, 0xf8, 0xfe, 0x08,
  0xfc, 0x00, 0xfd, 0xf1, 0x02, 0xfe, 0x03, 0xf2, 0xfd, 0xf4, 0x05, 0xf9,
  0xfd, 0xff, 0xf8, 0xf2, 0x0b, 0x01, 0xef, 0xfa, 0x00, 0x2b, 0xf7, 0xf1,
  0xef, 0xfd, 0xf7, 0xf1, 0x01, 0xf7, 0xfb, 0xfa, 0xfa, 0xff, 0xf6, 0xf4,
  0x1a, 0x04, 0xfe, 0xfd, 0x03, 0xe9, 0xfd, 0xf7, 0xf1, 0xf6, 0xf6, 0x06,
  0x08, 0xf0, 0xf7, 0xfa, 0xfb, 0x01, 0xf7, 0xf7, 0xfa, 0xfe, 0xf5, 0xfe,
  0xfc, 0xf8, 0x34, 0xf1, 0xf8, 0x07, 0xf3, 0xf9, 0xfe, 0x01, 0xff, 0x03,
  0xfa, 0xf8, 0x01, 0xf4, 0x11, 0x02, 0xf3, 0x03, 0xf6, 0x02, 0xdb, 0xf9,
  0xff, 0xfc, 0xf8, 0xf5, 0xf9, 0x01, 0xf5, 0x01, 0x05, 0x04, 0x04, 0x03,
  0x04, 0xf9, 0xf7, 0xfe, 0xff, 0xee, 0xfe, 0xf9, 0xfe, 0x01, 0xf1, 0x06,
  0x1a, 0xfc, 0xfc, 0xf9, 0xf7, 0xf9, 0x04, 0xfa, 0xf9, 0xf8, 0xf0, 0x02,
  0x05, 0xf1, 0xf9, 0xf0, 0xfd, 0xfe, 0xf4, 0x00, 0x20, 0xfd, 0xf9, 0x04,
  0x04, 0xff, 0xfd, 0x05, 0x28, 0xf9, 0xf1, 0x04, 0xfe, 0x27, 0x0b, 0xfe,
  0xf1, 0x00, 0xfb, 0xf1, 0x15, 0xf2, 0xf9, 0xf9, 0x02, 0x08, 0xfa, 0x03,
  0xfa, 0xf3, 0xf4, 0xff, 0xf8, 0x11, 0x00, 0x01, 0x04, 0xf4, 0x06, 0xfa,
  0xf4, 0xf1, 0xf3, 0xfe, 0x04, 0x00, 0xfb, 0x00, 0x04, 0xf6, 0xfb, 0xf2,
  0xf8, 0xf8, 0x02, 0xf0, 0xf3, 0xf2, 0x01, 0xfc, 0xfa, 0xf7, 0x02, 0x0d,
  0xfd, 0x01, 0x0d, 0xf5, 0x04, 0x03, 0xf5, 0xfb, 0xf7, 0x0d, 0x11, 0x01,
  0xff, 0x01, 0xfd, 0xff, 0x04, 0xfc, 0xf8, 0x0b, 0x00, 0x0b, 0x05, 0x01,
  0xe2, 0xfd, 0xff, 0xf4, 0xf3, 0x08, 0xdd, 0xf1, 0xf4, 0xf7, 0xf8, 0x06,
  0x10, 0x06, 0xf6, 0xfb, 0x01, 0x0c, 0x0e, 0xf8, 0x0f, 0x04, 0xf6, 0xf9,
  0xf2, 0xf8, 0x1d, 0xfd, 0xff, 0xfb, 0x00, 0xfc, 0xf0, 0x06, 0x04, 0xf2,
  0xfe, 0x05, 0x10, 0x00, 0xfe, 0xfa, 0xfe, 0xfa, 0x01, 0xe6, 0x0c, 0x04,
  0xfc, 0xfa, 0xf5, 0x04, 0x0a, 0x00, 0xfc, 0xf4, 0x05, 0x0c, 0x04, 0xf7,
  0x09, 0xfc, 0xfb, 0x01, 0xf9, 0x12, 0xf6, 0xf8, 0xfd, 0x04, 0xf7, 0x07,
  0xfb, 0xf6, 0xf2, 0x00, 0xff, 0x06, 0x0c, 0x07, 0xd6, 0x02, 0xf2, 0x07,
  0xf5, 0x0f, 0x1e, 0xfb, 0xfc, 0xf8, 0xff, 0xf4, 0x03, 0xfc, 0x04, 0xfe,
  0x03, 0xf0, 0xf6, 0x03, 0xeb, 0x05, 0xf7, 0x00, 0xff, 0xee, 0xfc, 0xfd,
  0xfb, 0xf4, 0x03, 0xfa, 0x09, 0xff, 0xf4, 0x03, 0xf4, 0x03, 0x0b, 0xfd,
  0x1e, 0xf3, 0xfd, 0xfb, 0xff, 0x09, 0x09, 0x04, 0x01, 0xfc, 0xfc, 0xfe,
  0xec, 0xfc, 0xf3, 0xf5, 0x04, 0xfa, 0x0d, 0xfb, 0xef, 0x04, 0x03, 0xfd,
  0xf8, 0xfc, 0x12, 0x00, 0xff, 0xf7, 0xfd, 0xfe, 0x08, 0xfc, 0x06, 0x08,
  0x03, 0x08, 0xfb, 0xf9, 0x04, 0x04, 0xf7, 0x03, 0xf7, 0xfe, 0x10, 0x00,
  0xf1, 0x00, 0xfa, 0xfb, 0x03, 0xfe, 0xfd, 0xf3, 0xf8, 0x03, 0x0d, 0x06,
  0xfb, 0xfa, 0xfc, 0x04, 0x05, 0xf7, 0x07, 0x03, 0x01, 0xf3, 0x00, 0x01,
  0x13, 0xf5, 0xf2, 0x03, 0xfc, 0x08, 0x0c, 0xfb, 0x10, 0x03, 0xf3, 0xf7,
  0xfd, 0xc3, 0xf3, 0x03, 0xf1, 0x04, 0xfa, 0x01, 0xfa, 0xf2, 0x02, 0xfd,
  0xfa, 0xfd, 0x09, 0x04, 0x00, 0xf7, 0xf4, 0xf5, 0xff, 0x1a, 0xfe, 0xf2,
  0xf6, 0xf5, 0xff, 0xf4, 0xf0, 0xf8, 0xfd, 0x06, 0xff, 0x04, 0x0b, 0xfe,
  0xf3, 0xf9, 0xef, 0xf5, 0x05, 0x0f, 0xfe, 0xf6, 0xfd, 0xf6, 0xf8, 0xfb,
  0x0a, 0xfd, 0xf7, 0xfa, 0xf7, 0x04, 0x07, 0xf7, 0x01, 0xf9, 0x00, 0xfd,
  0xfc, 0x04, 0x0d, 0x06, 0x04, 0xff, 0x06, 0xfd, 0x08, 0xf5, 0xf7, 0xf7,
  0xf2, 0x08, 0x10, 0xf2, 0xf4, 0xfa, 0xf9, 0xf6, 0x07, 0x17, 0xee, 0xfb,
  0xfd, 0xfa, 0xf4, 0xfe, 0xf8, 0xf5, 0xfb, 0xfa, 0x00, 0xf7, 0xff, 0xee,
  0xdd, 0xf9, 0xf6, 0xf3, 0xfe, 0xfd, 0x02, 0x01, 0x12, 0xfd, 0xfa, 0xf2,
  0xf7, 0xf1, 0x01, 0xf9, 0x06, 0xdb, 0x03, 0xfb, 0xfd, 0xf8, 0xf1, 0xf7,
  0xfb, 0xe9, 0xea, 0xf5, 0xf7, 0x03, 0x06, 0x06, 0xef, 0x00, 0xf2, 0xfe,
  0x00, 0xf7, 0xf7, 0xef, 0x09, 0xfd, 0x04, 0xfb, 0xf6, 0xef, 0xfa, 0xfe,
  0x01, 0xf7, 0xf3, 0xfe, 0x1f, 0xf1, 0xfa, 0x10, 0xf6, 0x0b, 0xfd, 0xfa,
  0xdc, 0xf2, 0xfd, 0x04, 0xf8, 0x0c, 0xdf, 0xf3, 0xf9, 0xf1, 0xfc, 0xf8,
  0x14, 0x03, 0xfb, 0x0c, 0x06, 0xe6, 0xed, 0x04, 0xfd, 0xf3, 0x01, 0xf3,
  0x02, 0xfc, 0xf1, 0x00, 0x04, 0x01, 0xf6, 0x03, 0xe5, 0xfe, 0x04, 0xfc,
  0xf4, 0xfa, 0xf2, 0xf8, 0x0e, 0x02, 0xfe, 0xf9, 0x00, 0xfa, 0x16, 0x02,
  0xfe, 0xfc, 0xf5, 0xf4, 0x00, 0xf9, 0xfc, 0x01, 0x05, 0x00, 0xfa, 0xf6,
  0xf3, 0xfa, 0xfd, 0x03, 0x06, 0x05, 0x09, 0xef, 0xf9, 0xfe, 0xfa, 0xff,
  0x15, 0xfa, 0xf9, 0x05, 0xff, 0x0d, 0xf7, 0xf6, 0xee, 0xfc, 0xf6, 0xff,
  0x02, 0xfc, 0xfc, 0xf7, 0xff, 0x03, 0xfd, 0xf4, 0x0f, 0xfd, 0xfc, 0x00,
  0xf4, 0xf7, 0xf7, 0xfc, 0x3b, 0x02, 0xfd, 0xfd, 0xf6, 0x11, 0xf6, 0xf4,
  0xf7, 0xfa, 0xfe, 0xff, 0xf3, 0x01, 0x05, 0x06, 0x04, 0xfc, 0x00, 0xfb,
  0xca, 0x05, 0xfe, 0xf5, 0xff, 0x11, 0x07, 0x03, 0xf6, 0xf8, 0xff, 0xf8,
  0xe6, 0x01, 0x06, 0xfe, 0x05, 0x02, 0xf7, 0xf5, 0xc4, 0xf9, 0x03, 0xf7,
  0xf0, 0xf3, 0x08, 0x03, 0x01, 0xf9, 0xfa, 0xf6, 0x03, 0x00, 0x02, 0xff,
  0x01, 0xfe, 0xfc, 0xf3, 0xf7, 0xf4, 0xf4, 0xf1, 0xf9, 0xd3, 0x0f, 0xff,
  0xf0, 0xf4, 0xf9, 0xfc, 0x0a, 0x06, 0xf8, 0xfb, 0xf7, 0xef, 0xec, 0xff,
  0x01, 0x02, 0xf6, 0xff, 0xfb, 0xf8, 0xf5, 0xf2, 0xef, 0xf3, 0xf6, 0xfd,
  0x22, 0xf3, 0x04, 0xff, 0x01, 0xf8, 0xfd, 0x03, 0x19, 0xfd, 0xf6, 0x03,
  0xfb, 0x1f, 0xff, 0xfa, 0xf5, 0xfa, 0xf7, 0xfb, 0x08, 0xfc, 0xfd, 0x06,
  0xf5, 0xf6, 0x00, 0xfc, 0xf9, 0x00, 0xf5, 0xf5, 0xf0, 0xf9, 0xf7, 0xf6,
  0x02, 0xf6, 0xf2, 0xfe, 0xf2, 0xfd, 0x02, 0xf7, 0xfd, 0xfd, 0xf0, 0x00,
  0x12, 0xf3, 0xf8, 0xf6, 0xf6, 0x5a, 0xfe, 0xfb, 0xf8, 0xfe, 0x05, 0x04,
  0x19, 0xf8, 0x00, 0xfa, 0xfa, 0xf7, 0xef, 0x00, 0xe2, 0xf8, 0xf5, 0xf3,
  0xf2, 0xea, 0xe7, 0xf1, 0xfb, 0xfb, 0xfa, 0x02, 0xef, 0xfd, 0x03, 0xfa,
  0xf6, 0xf9, 0x02, 0xf5, 0x11, 0xfc, 0xf5, 0x07, 0x04, 0xf8, 0x0e, 0xf4,
  0xf0, 0xf4, 0xf6, 0xf8, 0x06, 0x05, 0xf6, 0xf5, 0xf8, 0x02, 0x06, 0x02,
  0x25, 0xf7, 0xff, 0x00, 0xf9, 0x1a, 0x08, 0xfb, 0xf0, 0xfe, 0xf9, 0xfd,
  0xea, 0x03, 0x06, 0x09, 0x03, 0x00, 0x03, 0xf5, 0xe7, 0x04, 0xf8, 0xf7,
  0xfd, 0xd4, 0x0b, 0xf9, 0xf0, 0x03, 0xf8, 0x00, 0x1b, 0xff, 0x01, 0xfd,
  0xff, 0xee, 0xfe, 0xf8, 0x11, 0xf0, 0xef, 0x02, 0xff, 0x0a, 0xf1, 0xfb,
  0xf2, 0x02, 0x00, 0x04, 0x2a, 0xf8, 0xf7, 0xff, 0x05, 0xff, 0x06, 0x04,
  0x18, 0xf7, 0x03, 0xf7, 0xfd, 0x3f, 0xea, 0xfc, 0xf2, 0xfd, 0x00, 0xff,
  0x18, 0xf7, 0x04, 0xf5, 0xfc, 0x12, 0x03, 0xf4, 0xfd, 0xfc, 0xf2, 0xfe,
  0xff, 0xe3, 0x00, 0x00, 0xf7, 0x05, 0xf1, 0xfb, 0xff, 0x00, 0xf2, 0xf9,
  0x00, 0x08, 0xf0, 0xf5, 0x26, 0x06, 0xfe, 0xfe, 0xf9, 0x3d, 0xff, 0xf1,
  0x02, 0xf3, 0xff, 0xf2, 0x0a, 0xf1, 0x01, 0x12, 0xf0, 0x05, 0x04, 0xf4,
  0x13, 0xfc, 0x00, 0xfe, 0xfc, 0xeb, 0x1d, 0xfb, 0xf6, 0xf7, 0x02, 0x01,
  0x09, 0x03, 0x04, 0x0f, 0xf2, 0x04, 0xfe, 0xfa, 0xe9, 0x05, 0xf3, 0x06,
  0xf9, 0xcd, 0xcb, 0xfd, 0x02, 0xf8, 0xf1, 0xf6, 0x06, 0x02, 0x02, 0x09,
  0x06, 0x0f, 0x0f, 0x02, 0x1e, 0xf7, 0xf0, 0x06, 0xf4, 0xff, 0x1e, 0xfd,
  0xfa, 0x01, 0xf0, 0xf5, 0x01, 0xf6, 0x02, 0x03, 0x04, 0x0f, 0x0f, 0xfa,
  0xff, 0xf0, 0xfb, 0xf2, 0xfa, 0xc8, 0xea, 0xf1, 0x03, 0xf8, 0xfd, 0xfd,
  0x1a, 0xf5, 0xf1, 0xfd, 0xf9, 0x0f, 0x03, 0xf8, 0xf8, 0xfc, 0xf7, 0xf5,
  0x03, 0x7f, 0x1a, 0xfc, 0xf1, 0xfb, 0xf5, 0xfb, 0x17, 0xf3, 0xf8, 0x1f,
  0xf1, 0x0b, 0x0b, 0xf9, 0x18, 0xf3, 0xf1, 0x05, 0xfd, 0xca, 0x25, 0xf7,
  0x01, 0xf2, 0x04, 0xfa, 0xfa, 0xf8, 0xfb, 0xfb, 0xf6, 0xed, 0xf9, 0xf2,
  0x07, 0xfc, 0xf4, 0x06, 0x03, 0xea, 0x15, 0xf7, 0xfa, 0xfb, 0x05, 0xfe,
  0x11, 0xfe, 0x00, 0xe9, 0xf7, 0x0a, 0x08, 0xf9, 0xf5, 0xf7, 0xf0, 0x03,
  0xf7, 0x27, 0x0c, 0x00, 0x02, 0xff, 0x00, 0x00, 0x06, 0x05, 0x03, 0xe6,
  0xff, 0xf1, 0x10, 0xf1, 0xe5, 0xf2, 0xfb, 0x01, 0xf6, 0x26, 0xfb, 0xf3,
  0xef, 0xf1, 0xff, 0x03, 0x12, 0xfe, 0xfc, 0xf8, 0x05, 0xf6, 0x04, 0xf5,
  0x32, 0x01, 0xfe, 0x04, 0xf6, 0xf9, 0xfd, 0xfc, 0xf3, 0xfb, 0x06, 0xf1,
  0x0c, 0xf5, 0xf6, 0xf9, 0x01, 0xf2, 0xff, 0xf8, 0x07, 0xff, 0xff, 0xf3,
  0x00, 0x16, 0x04, 0xfd, 0xf0, 0xf6, 0xfc, 0xfb, 0x22, 0xf6, 0xfe, 0xfe,
  0xfd, 0x00, 0x00, 0xf8, 0xd7, 0x00, 0xf2, 0xf3, 0xfc, 0x96, 0x0a, 0xf8,
  0xf6, 0xf1, 0xf6, 0xfe, 0x07, 0x05, 0xf5, 0x0f, 0x02, 0x08, 0xff, 0x03,
  0x08, 0x00, 0x01, 0x04, 0xff, 0xfc, 0x03, 0xfc, 0xf5, 0x04, 0xf6, 0xf6,
  0xdf, 0xfb, 0xfd, 0xf8, 0xf8, 0x04, 0x12, 0xf4, 0x17, 0xfa, 0xfb, 0xf4,
  0x07, 0xdd, 0xfa, 0xfd, 0xf8, 0x03, 0xf9, 0xfa, 0x11, 0xf4, 0x04, 0xfd,
  0xfd, 0xf9, 0x0d, 0xf5, 0xe2, 0xf1, 0xf7, 0xf8, 0xf6, 0x0c, 0x1b, 0xfb,
  0xf3, 0xfb, 0xf7, 0xf4, 0x0a, 0x01, 0x02, 0xf8, 0x00, 0xfb, 0x09, 0xf7,
  0xdb, 0xf5, 0xf5, 0xf5, 0xfc, 0x17, 0x1a, 0x01, 0xf2, 0xf5, 0xf1, 0x00,
  0xfb, 0x04, 0x03, 0x07, 0x04, 0xfb, 0x00, 0x01, 0x0b, 0xfe, 0x01, 0xfb,
  0x11, 0x10, 0x01, 0xf9, 0x0a, 0x07, 0xfc, 0xf9, 0x10, 0xf1, 0xfd, 0xfd,
  0x03, 0x2e, 0x01, 0xf8, 0xe5, 0x0a, 0xf5, 0xf9, 0x07, 0x0d, 0xf6, 0xfc,
  0x07, 0xfb, 0xf9, 0xfa, 0x05, 0x05, 0x00, 0xfb, 0x02, 0xf5, 0x02, 0xf9,
  0x11, 0xfa, 0x04, 0xff, 0xfd, 0xfe, 0xf2, 0x07, 0xfb, 0xfb, 0x04, 0x08,
  0x03, 0xfa, 0xff, 0x0d, 0xf8, 0x0e, 0x03, 0x03, 0x29, 0xfd, 0xef, 0x01,
  0x01, 0x2b, 0xee, 0xfd, 0xf6, 0xff, 0xfe, 0xfe, 0x09, 0x05, 0x01, 0x06,
  0xf7, 0xf5, 0x0f, 0xf4, 0x07, 0x06, 0xff, 0xf8, 0xf4, 0x17, 0xff, 0x02,
  0xfa, 0x01, 0xf5, 0xf6, 0x04, 0xfa, 0x00, 0x00, 0x02, 0xf3, 0x12, 0xf5,
  0xe2, 0xfa, 0x01, 0x0c, 0xf6, 0x0f, 0xf1, 0xfd, 0xfe, 0x03, 0x06, 0x01,
  0x11, 0xfb, 0x0b, 0x05, 0xfc, 0x05, 0x0e, 0x06, 0x0d, 0xfd, 0xf7, 0xff,
  0xf9, 0x07, 0x02, 0xf7, 0xf7, 0xf5, 0xf3, 0x0a, 0xf8, 0x08, 0xfc, 0x09,
  0xfc, 0x18, 0x14, 0xff, 0xdd, 0xf6, 0xfa, 0xff, 0xf6, 0x37, 0xf7, 0xfd,
  0xfa, 0x09, 0xf4, 0xf5, 0xfb, 0xf6, 0x04, 0x08, 0x07, 0xde, 0x0e, 0xfd,
  0x10, 0xfc, 0x05, 0x02, 0x04, 0xd9, 0x02, 0xf7, 0x06, 0x06, 0xfa, 0x04,
  0x06, 0xfc, 0xfd, 0x01, 0xfe, 0x0e, 0x0b, 0xfb, 0xf2, 0x03, 0xfa, 0x04,
  0x09, 0xd8, 0xf6, 0x05, 0xf8, 0xf5, 0x03, 0x04, 0x01, 0xf5, 0x01, 0x00,
  0xf6, 0x12, 0x07, 0xfe, 0xda, 0xfd, 0x02, 0xfe, 0x09, 0x15, 0xff, 0x09,
  0x07, 0xf8, 0xf8, 0xf9, 0x0a, 0xf7, 0xf6, 0x0f, 0x0b, 0x03, 0x14, 0x05,
  0x0d, 0xf9, 0xfa, 0x02, 0x04, 0xf5, 0x06, 0xf8, 0x02, 0x06, 0x05, 0x03,
  0x15, 0x09, 0xfd, 0x03, 0x07, 0xf4, 0x01, 0x02, 0x0a, 0x02, 0xf8, 0xfb,
  0xfe, 0x03, 0x17, 0x04, 0xff, 0x03, 0xfc, 0xf6, 0x14, 0xfa, 0x04, 0xfd,
  0x06, 0xfb, 0x0f, 0xf9, 0x04, 0x09, 0xfd, 0x09, 0x02, 0xe5, 0x11, 0xfa,
  0x07, 0xf8, 0x08, 0xf6, 0x0f, 0xfa, 0x09, 0x02, 0x06, 0x09, 0x0a, 0xf5,
  0x0d, 0x03, 0xff, 0xf5, 0x09, 0xfc, 0x03, 0x04, 0xf9, 0x02, 0xf6, 0xfc,
  0x0e, 0x06, 0x00, 0x15, 0xfc, 0x0f, 0x0b, 0x04, 0x46, 0xfc, 0x03, 0x01,
  0xfe, 0xf0, 0x09, 0x08, 0xfd, 0x01, 0xfe, 0x0a, 0x04, 0x03, 0xf5, 0x09,
  0x04, 0xf7, 0x03, 0xfa, 0x4f, 0xf9, 0xfc, 0x06, 0xf9, 0xe9, 0xfc, 0xfa,
  0x03, 0xf7, 0xfa, 0x00, 0xfc, 0xfc, 0xfb, 0x0b, 0xf6, 0xf9, 0x05, 0xfa,
  0xdd, 0x01, 0xf8, 0xf8, 0xf8, 0x05, 0xef, 0x05, 0xf4, 0xfe, 0xf9, 0xfa,
  0x03, 0x08, 0xf9, 0xfc, 0x08, 0x0d, 0x11, 0x08, 0x20, 0xf7, 0xf3, 0xfa,
  0xf4, 0xfe, 0x15, 0x08, 0xf9, 0x04, 0x04, 0x09, 0x14, 0x01, 0x07, 0x07,
  0x05, 0xf7, 0x11, 0xfc, 0x00, 0x0a, 0xfb, 0xfd, 0xf6, 0x10, 0xfe, 0xf6,
  0x02, 0xfa, 0x05, 0xfc, 0x04, 0xfa, 0xf8, 0xfc, 0x00, 0xe8, 0x07, 0xf8,
  0x02, 0x07, 0xfc, 0xfb, 0xf9, 0xff, 0x1a, 0x04, 0x02, 0x07, 0x03, 0xfc,
  0xfd, 0x07, 0xf9, 0xf6, 0xf9, 0xfa, 0x00, 0xf5, 0x14, 0x02, 0xf2, 0x02,
  0xf5, 0x44, 0x09, 0x06, 0xfa, 0xf9, 0xf3, 0xfa, 0x02, 0x00, 0x00, 0x0b,
  0xf7, 0xfe, 0x03, 0xfd, 0x0d, 0xff, 0x03, 0x01, 0x02, 0xfd, 0x1a, 0x00,
  0xfd, 0x06, 0xf7, 0x0a, 0x09, 0xf5, 0x06, 0x06, 0x01, 0x11, 0x13, 0xf4,
  0x46, 0xfe, 0xfe, 0xfb, 0xf6, 0x1d, 0x05, 0xf8, 0xf8, 0x06, 0x06, 0xf4,
  0x20, 0x01, 0x06, 0x0b, 0x09, 0xfd, 0x0b, 0x08, 0xed, 0xfd, 0xf0, 0x00,
  0xf4, 0x16, 0xfd, 0x03, 0xf6, 0xf7, 0xf9, 0x02, 0x10, 0x07, 0x07, 0x01,
  0x08, 0x03, 0x04, 0x07, 0xf2, 0xf8, 0x02, 0xfe, 0xfd, 0x1a, 0xf8, 0x04,
  0x02, 0x04, 0xff, 0xf9, 0x02, 0xfd, 0xff, 0xff, 0xf8, 0x0a, 0x10, 0x00,
  0xd6, 0x09, 0xf7, 0x05, 0xfd, 0x0f, 0x0b, 0xfe, 0xf6, 0x06, 0x02, 0x07,
  0xfb, 0x08, 0xf5, 0xfa, 0xfd, 0xf9, 0x07, 0x03, 0x17, 0x02, 0x04, 0xff,
  0xfd, 0xcd, 0x0b, 0xfb, 0x04, 0xff, 0x06, 0x02, 0xfd, 0xf5, 0x09, 0xf8,
  0xf5, 0x0e, 0x08, 0xf9, 0x05, 0xf8, 0x05, 0xfa, 0xfc, 0x22, 0x33, 0x08,
  0x07, 0x0a, 0xf4, 0x01, 0x12, 0xfd, 0x00, 0x02, 0xfc, 0x06, 0x05, 0xf5,
  0x2b, 0x02, 0x02, 0xfa, 0x07, 0x1a, 0x12, 0xf6, 0xf5, 0x0a, 0xfb, 0xf5,
  0x05, 0xfc, 0x07, 0x04, 0x05, 0xfb, 0x01, 0x05, 0x1d, 0xf8, 0x05, 0xf7,
  0x01, 0xf7, 0x19, 0x02, 0x02, 0xfc, 0xfc, 0x09, 0x03, 0xf6, 0x05, 0xfb,
  0xf8, 0xf6, 0x06, 0xf6, 0x30, 0x09, 0xfc, 0x0a, 0xf7, 0x10, 0x02, 0x03,
  0xf4, 0xfc, 0xf7, 0xfb, 0x02, 0xf7, 0x04, 0xfe, 0xf7, 0xf4, 0x09, 0xfc,
  0x03, 0xfd, 0x02, 0x0b, 0xf9, 0x51, 0x07, 0x07, 0x03, 0xfe, 0xfe, 0x08,
  0x0f, 0x08, 0x05, 0xfc, 0x06, 0xef, 0x00, 0xfa, 0x9f, 0x07, 0xfb, 0xfa,
  0x02, 0x1f, 0xf2, 0xfc, 0xf8, 0x05, 0x06, 0xfc, 0x03, 0xf3, 0x02, 0x0b,
  0x00, 0x01, 0x08, 0xf6, 0x06, 0xfa, 0xfb, 0xfb, 0xf6, 0x00, 0x10, 0xfc,
  0xf8, 0xf7, 0x01, 0xfa, 0x10, 0xf9, 0x03, 0x11, 0x01, 0x06, 0x03, 0x09,
  0x11, 0x01, 0xff, 0x06, 0x02, 0x47, 0x05, 0xfe, 0x03, 0xf7, 0x04, 0xfc,
  0x07, 0xf2, 0xf6, 0x09, 0xf7, 0x01, 0x10, 0x02, 0xf8, 0x02, 0xfc, 0x06,
  0x02, 0x0a, 0xff, 0x09, 0xfa, 0x03, 0xf8, 0xf9, 0x01, 0xfb, 0xf4, 0xf8,
  0xfd, 0x07, 0x02, 0xfd, 0xfe, 0xf8, 0x01, 0xfc, 0xf7, 0xdc, 0x06, 0x05,
  0xf7, 0x03, 0x06, 0xf5, 0x00, 0x07, 0x01, 0x01, 0x04, 0x12, 0x10, 0xfe,
  0xf8, 0xfb, 0x02, 0x08, 0x0a, 0xfa, 0x0d, 0x01, 0xf9, 0x02, 0xfc, 0x04,
  0x1f, 0x05, 0xf7, 0xf1, 0x09, 0x09, 0x13, 0xff, 0xc6, 0x04, 0xfc, 0x00,
  0xf6, 0x0d, 0x18, 0x00, 0xf9, 0xff, 0xfd, 0x05, 0xf4, 0xf0, 0xfe, 0x0b,
  0x04, 0xf6, 0x04, 0xf9, 0x0f, 0xfe, 0xf7, 0x03, 0x06, 0x0d, 0xf5, 0xfd,
  0x10, 0xf5, 0xf8, 0xfa, 0x0a, 0x03, 0xfc, 0xff, 0x00, 0x22, 0xf4, 0xf9,
  0xd1, 0xfe, 0x01, 0xf7, 0xf8, 0x04, 0xf3, 0xfe, 0x07, 0xf7, 0xf8, 0x03,
  0xfb, 0x08, 0x01, 0x01, 0x06, 0xf6, 0xff, 0xf4, 0xf5, 0x07, 0xef, 0xf8,
  0x06, 0x00, 0xf9, 0x01, 0x00, 0x02, 0xf4, 0x03, 0xff, 0xf7, 0xff, 0x11,
  0xf7, 0xfc, 0x0a, 0x03, 0x2f, 0x02, 0xf1, 0x06, 0xff, 0x1b, 0xfc, 0xfc,
  0xf8, 0xfd, 0xfc, 0xfc, 0x07, 0xff, 0xfe, 0x01, 0xff, 0xf5, 0x05, 0x01,
  0x01, 0xf4, 0x03, 0xf5, 0x07, 0x0f, 0x02, 0xfd, 0x06, 0xfa, 0x00, 0x00,
  0x01, 0x01, 0x05, 0x00, 0x00, 0xff, 0x03, 0xf1, 0x1d, 0xfe, 0xfe, 0xf8,
  0xf3, 0x20, 0xf6, 0xf6, 0x04, 0x02, 0xf5, 0x03, 0xf9, 0xf4, 0xf6, 0x02,
  0xf5, 0xff, 0xf9, 0xfb, 0x02, 0x05, 0xef, 0xfb, 0x02, 0x05, 0x0a, 0x06,
  0xf7, 0x04, 0x05, 0xfc, 0xfe, 0xf5, 0xf7, 0x08, 0xfc, 0x10, 0x0a, 0xf4,
  0x03, 0x00, 0xfd, 0x03, 0xf2, 0xef, 0x00, 0xfc, 0xf5, 0x04, 0x02, 0xfc,
  0x1f, 0xf9, 0xf9, 0x07, 0x00, 0xf3, 0x0a, 0xfc, 0xf1, 0xf3, 0xfd, 0xfd,
  0xf2, 0xb2, 0x1c, 0xf3, 0x00, 0xf4, 0xf5, 0x04, 0x0a, 0xf1, 0x03, 0x00,
  0xf5, 0xfb, 0x03, 0xf3, 0x10, 0x01, 0x00, 0x08, 0xfd, 0xd5, 0xff, 0xfb,
  0xf4, 0xf2, 0xf7, 0x02, 0x01, 0xfb, 0xf9, 0x04, 0xf8, 0xf1, 0x04, 0x02,
  0xd3, 0xf1, 0xf0, 0x06, 0xfa, 0xf1, 0x02, 0xf7, 0xf7, 0xfb, 0x06, 0xf8,
  0x02, 0xff, 0x04, 0x10, 0xfe, 0x05, 0x00, 0xfc, 0x10, 0xf8, 0x00, 0xfd,
  0xfa, 0x20, 0xfb, 0xfa, 0xf1, 0x02, 0xf7, 0xfa, 0x11, 0xfc, 0xf2, 0x0c,
  0xf7, 0xef, 0x02, 0xf4, 0x02, 0xf8, 0xfb, 0xf6, 0x00, 0xff, 0x00, 0x01,
  0xf5, 0xfd, 0x04, 0xf4, 0x11, 0xfd, 0xf6, 0xf7, 0xfd, 0xf3, 0xf9, 0xfa,
  0x18, 0x06, 0xf4, 0x06, 0xfa, 0x21, 0x04, 0xf7, 0xf6, 0xff, 0xf5, 0x03,
  0x08, 0xff, 0xf9, 0x07, 0x02, 0xed, 0xfa, 0xf4, 0xfa, 0x00, 0x01, 0xf4,
  0xf6, 0xf5, 0x05, 0xfd, 0xfd, 0x07, 0xf4, 0xf9, 0xf9, 0x05, 0xf8, 0xf8,
  0x00, 0x03, 0x00, 0xf5, 0x26, 0xf1, 0xfb, 0x08, 0xf9, 0x14, 0x00, 0x04,
  0xfe, 0x07, 0xf2, 0x03, 0x10, 0xfc, 0x00, 0x01, 0xf2, 0xf2, 0xfc, 0x07,
  0xd6, 0x07, 0xfd, 0xfc, 0x00, 0x05, 0x0a, 0x00, 0xf5, 0xf6, 0xfb, 0xf8,
  0x01, 0x03, 0x01, 0x05, 0xff, 0xf6, 0xf9, 0xf4, 0x04, 0xf7, 0xf6, 0xf7,
  0x00, 0x0a, 0x10, 0xfb, 0xf1, 0xf8, 0x01, 0xf4, 0x00, 0xf6, 0xf2, 0xff,
  0x01, 0xf8, 0x11, 0xf3, 0x44, 0x02, 0xf9, 0xf7, 0xff, 0xcb, 0x0f, 0x06,
  0xfe, 0x03, 0xf6, 0xf4, 0xf7, 0x06, 0xf9, 0xfe, 0x07, 0xfd, 0xfc, 0xf8,
  0xcc, 0xf2, 0xf1, 0x07, 0xff, 0xe2, 0x0f, 0xf8, 0xf6, 0xf3, 0x01, 0xf3,
  0x09, 0xf9, 0x03, 0x05, 0xf3, 0xf7, 0xfe, 0xfd, 0x08, 0x06, 0xf6, 0xff,
  0x03, 0x08, 0x08, 0x01, 0xf2, 0x00, 0x00, 0xff, 0xfe, 0x02, 0xf6, 0xf9,
  0x01, 0xf8, 0x06, 0x06, 0xa3, 0xf3, 0xf5, 0x09, 0xf8, 0x10, 0x02, 0xf6,
  0xfe, 0xf1, 0x06, 0xf5, 0x0f, 0x03, 0xf6, 0x05, 0xf7, 0x09, 0x04, 0x07,
  0xf9, 0xff, 0xfd, 0xfe, 0xff, 0xee, 0xfc, 0xf2, 0xfa, 0xf6, 0x02, 0x02,
  0x0a, 0xf8, 0xf5, 0xfc, 0x03, 0x07, 0x12, 0x01, 0x14, 0xfb, 0xf4, 0x06,
  0xfd, 0x00, 0x00, 0xf7, 0xf4, 0x00, 0xf1, 0xf6, 0xf8, 0xfc, 0x05, 0x03,
  0xf5, 0xea, 0x0c, 0x03, 0xca, 0xfa, 0xfd, 0x04, 0x05, 0xe1, 0x11, 0xf4,
  0x06, 0xfb, 0x01, 0xfa, 0x00, 0x01, 0x01, 0xfc, 0x03, 0x07, 0x07, 0xf5,
  0x02, 0x04, 0xfe, 0xfd, 0xfd, 0x15, 0xf9, 0x04, 0xf9, 0xf5, 0x03, 0xf8,
  0x04, 0xf3, 0x02, 0xfa, 0xf6, 0xfb, 0x0c, 0x03, 0xdd, 0xf9, 0xf6, 0x06,
  0x01, 0xc4, 0xfa, 0xfc, 0xf5, 0x07, 0xf5, 0x05, 0x09, 0xf6, 0x04, 0x05,
  0x08, 0xfe, 0x07, 0x05, 0x0b, 0x04, 0xf0, 0x04, 0xf1, 0x58, 0xd9, 0xf1,
  0x06, 0xf5, 0x04, 0xf6, 0xf6, 0xfd, 0xfb, 0xf1, 0x07, 0x02, 0x09, 0xf4,
  0xfc, 0xf7, 0xf6, 0x02, 0xf3, 0x42, 0x15, 0x07, 0xff, 0xff, 0x05, 0x05,
  0xfb, 0xf5, 0x05, 0x1f, 0x02, 0xff, 0x00, 0xf6, 0x4a, 0xf4, 0xfb, 0x00,
  0xf6, 0x3b, 0xfa, 0x02, 0xfe, 0xf4, 0xf0, 0xf7, 0x06, 0x04, 0xf9, 0x0c,
  0xff, 0xfb, 0xfd, 0x06, 0x03, 0x06, 0x02, 0xfb, 0xf9, 0x25, 0x19, 0x05,
  0xf7, 0xf2, 0x02, 0xf6, 0xfd, 0xf3, 0xf5, 0xf6, 0xf6, 0xfb, 0x0a, 0xf3,
  0x00, 0xf4, 0xff, 0x00, 0xf5, 0xf2, 0x05, 0x00, 0xf9, 0xf3, 0xf1, 0x06,
  0xf7, 0xf4, 0xf3, 0x11, 0xf9, 0xfc, 0x05, 0xf4, 0xfe, 0xfb, 0x02, 0xfa,
  0xfe, 0x3b, 0xf1, 0xf3, 0xfb, 0xfb, 0x03, 0xf1, 0x06, 0xfd, 0xf8, 0x02,
  0xfd, 0xf9, 0x0c, 0x00, 0x9a, 0xf6, 0xfe, 0xfc, 0xf9, 0xf1, 0x27, 0x00,
  0xfd, 0x07, 0xf5, 0xff, 0x06, 0x03, 0xf5, 0xfb, 0xf6, 0x0e, 0x0e, 0xf2,
  0x06, 0xfd, 0xfa, 0xfe, 0x02, 0x1f, 0x0c, 0xff, 0x01, 0xf2, 0x06, 0xfb,
  0x0f, 0x01, 0x03, 0xfe, 0xfd, 0x0c, 0x01, 0xfd, 0x10, 0x01, 0xf2, 0xfd,
  0x06, 0x36, 0x02, 0xf7, 0xff, 0xfa, 0xfe, 0x03, 0x03, 0xf4, 0xf7, 0x00,
  0x05, 0x12, 0x10, 0xfb, 0x09, 0xfd, 0xff, 0x02, 0xfc, 0x19, 0xf8, 0xfa,
  0xf9, 0xf3, 0xf3, 0x05, 0xf3, 0x03, 0xf8, 0x02, 0x05, 0x08, 0x06, 0x02,
  0x10, 0x04, 0xef, 0xfe, 0xf3, 0xa2, 0x20, 0xf4, 0xf2, 0xfa, 0xfa, 0xfc,
  0x11, 0x04, 0xfd, 0xf0, 0x05, 0xfa, 0x05, 0x00, 0xfe, 0x02, 0x05, 0xfe,
  0x02, 0x14, 0xf1, 0x01, 0xf8, 0xf7, 0xf6, 0xf9, 0x04, 0x01, 0x00, 0xf1,
  0x00, 0xf1, 0x08, 0xf6, 0xe8, 0x00, 0x02, 0xf8, 0xf1, 0x25, 0x0e, 0xf9,
  0xfa, 0xfc, 0xf8, 0xf1, 0xf6, 0xf8, 0xf3, 0x05, 0x06, 0xff, 0xfd, 0xfe,
  0xf9, 0xf9, 0xf7, 0xf4, 0xf7, 0x03, 0xf9, 0xfd, 0x04, 0xf1, 0xfa, 0xfe,
  0x06, 0xfa, 0xfa, 0xf9, 0x05, 0x03, 0x08, 0xfc, 0x12, 0xf8, 0xfa, 0xf2,
  0xf7, 0xf0, 0xfc, 0xf4, 0xff, 0xff, 0xf5, 0x07, 0xf5, 0xfb, 0xf9, 0xf0,
  0x02, 0xea, 0xf6, 0xef, 0x07, 0xfa, 0x02, 0xf5, 0x02, 0xf2, 0x01, 0xff,
  0x03, 0xf4, 0xff, 0xf2, 0xff, 0xfa, 0x02, 0xff, 0xfd, 0x03, 0x01, 0xf7,
  0x15, 0xfe, 0x00, 0xf5, 0xfa, 0xfa, 0xff, 0xf2, 0x01, 0xfd, 0xef, 0xf3,
  0xf9, 0x05, 0xf4, 0xf4, 0x03, 0xf8, 0x02, 0xf1, 0x09, 0x03, 0xf7, 0xf7,
  0xfc, 0x1a, 0xfb, 0xef, 0xfd, 0xf7, 0xf6, 0x00, 0x03, 0x01, 0xfd, 0xf8,
  0x03, 0xf2, 0x02, 0x04, 0xf7, 0x05, 0xf2, 0xf8, 0xfb, 0xf7, 0x02, 0xef,
  0xf8, 0xf9, 0xfd, 0xf8, 0xff, 0xfa, 0xf0, 0xf2, 0xfd, 0xf1, 0x03, 0xff,
  0x04, 0xf0, 0xfa, 0xfe, 0xfe, 0x01, 0xff, 0xfd, 0xfd, 0xfc, 0xfe, 0x00,
  0xf7, 0x02, 0x06, 0xf6, 0xf8, 0x02, 0x02, 0x04, 0xff, 0x01, 0x02, 0xff,
  0xf7, 0xf9, 0x05, 0xf6, 0xf3, 0x04, 0xf9, 0xfb, 0x02, 0xf1, 0x06, 0x06,
  0xfb, 0xf1, 0xf7, 0x05, 0x07, 0x03, 0x03, 0x05, 0xf7, 0x0c, 0x05, 0xf6,
  0xf0, 0xf9, 0xf2, 0xff, 0xf9, 0xf9, 0x04, 0xf5, 0xff, 0x01, 0xfb, 0xf6,
  0xfe, 0xfd, 0x04, 0xf8, 0x01, 0x0b, 0xf9, 0x01, 0xf7, 0xf1, 0xfb, 0xf5,
  0x01, 0x00, 0xf4, 0xfb, 0xfa, 0x05, 0x02, 0xfa, 0x03, 0xf1, 0x02, 0xf6,
  0xf2, 0xe8, 0x02, 0xf4, 0xef, 0x05, 0x00, 0x00, 0xfa, 0xf7, 0x06, 0xfe,
  0xf8, 0x06, 0xf7, 0x05, 0x0c, 0xef, 0x01, 0x00, 0xfe, 0xfc, 0x07, 0xfd,
  0xfb, 0xf0, 0xfa, 0xf2, 0x04, 0xfa, 0xf7, 0x03, 0xf8, 0xfa, 0xf8, 0x03,
  0xfe, 0xfb, 0xfc, 0x06, 0xfc, 0xf7, 0x06, 0xfa, 0xfe, 0xfd, 0xf2, 0xfc,
  0x0b, 0xf7, 0x01, 0xf1, 0x03, 0xf5, 0xfa, 0x05, 0x03, 0x01, 0xf9, 0xf7,
  0xf2, 0x11, 0xfc, 0xf6, 0x00, 0xf0, 0xf8, 0xf4, 0x00, 0x01, 0xf7, 0xf1,
  0xf1, 0xfd, 0xfc, 0xfd, 0x05, 0xf2, 0xf7, 0x01, 0x04, 0xf7, 0xfe, 0xfe,
  0xf7, 0x04, 0x01, 0xfd, 0x0a, 0x01, 0x00, 0xfb, 0xf1, 0xfc, 0xf5, 0x00,
  0x15, 0xf0, 0xf7, 0x06, 0x02, 0x0c, 0x05, 0xf1, 0xf4, 0xfa, 0xf8, 0x01,
  0xff, 0xf3, 0xff, 0x0a, 0xf0, 0xf2, 0xed, 0xf2, 0xea, 0xf6, 0x04, 0x01,
  0x01, 0x01, 0xfe, 0xfa, 0xf0, 0xfb, 0xfd, 0xf0, 0xff, 0xfd, 0xff, 0xfe,
  0x05, 0x01, 0xf8, 0x00, 0x04, 0xfd, 0xf5, 0xf4, 0xf0, 0xfc, 0xfa, 0xf3,
  0xf9, 0xf0, 0xf6, 0xf8, 0x10, 0xf7, 0xff, 0x03, 0xfb, 0xf2, 0xfb, 0xf5,
  0xfe, 0xf5, 0xf8, 0xf4, 0xf1, 0xec, 0x06, 0x01, 0xf8, 0xfc, 0xf8, 0x03,
  0x08, 0xf8, 0x02, 0xff, 0xf0, 0xfe, 0x02, 0xff, 0xf8, 0x03, 0xf9, 0xf1,
  0x06, 0xe0, 0xfc, 0xf7, 0x04, 0x03, 0xf3, 0x02, 0x0e, 0x00, 0xf4, 0xf7,
  0xff, 0x04, 0xfe, 0xfd, 0x09, 0xf7, 0x01, 0xfa, 0x04, 0x05, 0x06, 0xfd,
  0xf6, 0x03, 0xff, 0x00, 0x11, 0x06, 0xfb, 0x00, 0xf9, 0xfd, 0x08, 0xf9,
  0x12, 0xf1, 0xee, 0xf1, 0xf5, 0xf4, 0x03, 0x04, 0xf9, 0xf4, 0xf7, 0xfa,
  0x07, 0xf6, 0xfa, 0xff, 0x03, 0x04, 0x05, 0x01, 0x02, 0xf4, 0xfa, 0xf8,
  0xf6, 0x14, 0xfb, 0xf4, 0x02, 0xf8, 0xf7, 0xf2, 0xff, 0x03, 0x00, 0xf0,
  0xf9, 0xf7, 0x06, 0xf9, 0x10, 0x04, 0xf4, 0xf2, 0xf9, 0xf8, 0x01, 0xfc,
  0xf8, 0xf5, 0xf0, 0xf3, 0x0e, 0xfd, 0x01, 0xfa, 0xfd, 0xf2, 0x01, 0xf8,
  0xff, 0xfe, 0xf5, 0xfb, 0xf6, 0xf8, 0x10, 0x05, 0xf3, 0x00, 0x02, 0x03,
  0x0b, 0xf3, 0xfe, 0x05, 0x06, 0xf6, 0xf3, 0xf4, 0x0d, 0xf7, 0xfe, 0xff,
  0xf6, 0x00, 0xf8, 0xf4, 0xfb, 0xff, 0xff, 0xfb, 0x06, 0xf4, 0xf8, 0xf9,
  0xf1, 0xf7, 0x15, 0xfd, 0x2f, 0xfd, 0xfb, 0x02, 0xf3, 0xef, 0x01, 0xfa,
  0xfa, 0x03, 0xfe, 0xf1, 0x15, 0xf6, 0xf5, 0xf9, 0x06, 0x06, 0x0d, 0x02,
  0xf9, 0xf1, 0x01, 0xf2, 0xf8, 0x01, 0x01, 0x03, 0x01, 0x01, 0xf9, 0xfc,
  0x0f, 0xf2, 0xf6, 0xf7, 0xf2, 0x04, 0x04, 0x02, 0x0a, 0xfb, 0x03, 0xf9,
  0x00, 0x01, 0x02, 0xf5, 0x00, 0x01, 0xf0, 0xfd, 0xf7, 0xf4, 0xf4, 0x0d,
  0x03, 0x05, 0x0d, 0xf6, 0xf8, 0xf4, 0x02, 0xf4, 0x03, 0x0d, 0x03, 0xfe,
  0xf1, 0x02, 0xfb, 0xf4, 0xfc, 0x04, 0xf4, 0xf0, 0xfd, 0xef, 0x05, 0xf9,
  0xff, 0x02, 0xfa, 0xf1, 0xf3, 0x10, 0x05, 0xf3, 0x01, 0x00, 0xf9, 0xfe,
  0x14, 0xfd, 0xf6, 0x07, 0xf5, 0xf5, 0x0a, 0x02, 0xf7, 0x03, 0xfa, 0xf3,
  0xfc, 0x05, 0xfb, 0xfa, 0x01, 0xfe, 0xfc, 0x01, 0x05, 0xf4, 0x03, 0xf6,
  0xfc, 0xfb, 0x02, 0xf1, 0x04, 0xfa, 0xee, 0x03, 0xfc, 0x00, 0xff, 0xf2,
  0x03, 0x00, 0x00, 0xf4, 0x05, 0xfe, 0xf7, 0xfe, 0xfa, 0xf9, 0x0a, 0x02,
  0xfe, 0xff, 0x04, 0xfe, 0xfd, 0xf8, 0xfd, 0xf6, 0x03, 0xf0, 0xf8, 0x02,
  0x07, 0xfe, 0xf2, 0xff, 0x04, 0xf3, 0x13, 0xfe, 0xfe, 0x02, 0x04, 0xfd,
  0xf7, 0xef, 0xf7, 0xf7, 0xfb, 0xf8, 0xf9, 0xf4, 0x0e, 0x03, 0xff, 0xf7,
  0xf4, 0x06, 0x14, 0xf0, 0x08, 0xf6, 0xf6, 0xf3, 0x02, 0x0b, 0xfb, 0x03,
  0xfe, 0xf3, 0x04, 0xfa, 0xfe, 0xfb, 0xf4, 0x03, 0xf1, 0x03, 0x08, 0xfb,
  0x04, 0xf6, 0xf4, 0xf5, 0xf5, 0xff, 0xfe, 0xf4, 0xf7, 0x05, 0x05, 0xfc,
  0x09, 0xfa, 0x01, 0xfc, 0xf3, 0xf9, 0x0a, 0x02, 0xfe, 0x02, 0xf3, 0xf4,
  0xf2, 0xfd, 0xfd, 0xf1, 0xfd, 0xf9, 0xf5, 0x00, 0x04, 0x02, 0xfa, 0x06,
  0xf6, 0x02, 0x02, 0xf3, 0x01, 0xfb, 0xf0, 0xf1, 0x03, 0xfb, 0x01, 0xf2,
  0xf4, 0x02, 0xf5, 0x02, 0x09, 0xfc, 0xf1, 0xf6, 0xf8, 0xf7, 0x0c, 0xf2,
  0x10, 0xf7, 0xf2, 0xf9, 0xfb, 0x01, 0x01, 0xfc, 0xf0, 0xf9, 0x04, 0x02,
  0xfe, 0x0f, 0xfe, 0xfb, 0x0d, 0x03, 0x0a, 0x0a, 0xed, 0xf8, 0x00, 0xfc,
  0xf5, 0x0d, 0x03, 0xfd, 0x03, 0x02, 0x02, 0xf7, 0x00, 0x01, 0xfa, 0xfe,
  0x09, 0x08, 0xfa, 0x00, 0xf9, 0x00, 0x02, 0x01, 0xf4, 0x03, 0x0a, 0x02,
  0x0a, 0x02, 0x0b, 0xfb, 0x02, 0xfd, 0x01, 0x0a, 0x03, 0x05, 0x0c, 0xff,
  0x00, 0x02, 0x0d, 0x08, 0x06, 0xf9, 0x00, 0xfc, 0x0c, 0xf9, 0x00, 0x0a,
  0xfc, 0x0d, 0x08, 0x01, 0x02, 0x05, 0x02, 0x0c, 0x19, 0x0e, 0x04, 0xfe,
  0x03, 0xfb, 0xfd, 0xfe, 0x0d, 0x00, 0x00, 0x03, 0xfc, 0x05, 0x02, 0x02,
  0xfe, 0x0f, 0x08, 0xfc, 0x05, 0x04, 0x04, 0x07, 0x0b, 0x04, 0x0b, 0x00,
  0x0b, 0x0e, 0x0e, 0x09, 0xfb, 0x03, 0x09, 0x0a, 0x05, 0xfe, 0x0a, 0x01,
  0xfa, 0x05, 0x03, 0x07, 0x05, 0x0a, 0x02, 0x00, 0xfd, 0x09, 0x08, 0x09,
  0xf8, 0x01, 0xf9, 0xff, 0xfb, 0x04, 0x04, 0xfd, 0x0a, 0xfa, 0x08, 0x0c,
  0xfc, 0x03, 0xfb, 0xff, 0x01, 0xff, 0x09, 0x01, 0xfb, 0xfa, 0x0b, 0xfb,
  0xff, 0x06, 0xfd, 0x07, 0x00, 0x09, 0x00, 0xf9, 0x04, 0x06, 0xfd, 0x0c,
  0x00, 0x02, 0x09, 0x08, 0xfe, 0x02, 0x05, 0xf1, 0x05, 0xff, 0xf8, 0x04,
  0xf9, 0x0a, 0xfc, 0xfb, 0xfc, 0x01, 0x06, 0xfb, 0x03, 0xff, 0x0b, 0x04,
  0x00, 0x08, 0xfe, 0x02, 0x0d, 0x10, 0xfd, 0x0c, 0xf9, 0xfb, 0xfd, 0x05,
  0x0a, 0x03, 0x08, 0x05, 0xfa, 0xfa, 0x0b, 0xff, 0xfe, 0x09, 0x06, 0x05,
  0xfa, 0x06, 0xfb, 0x00, 0x0a, 0x0b, 0x0a, 0x0c, 0x0b, 0x05, 0x02, 0xfd,
  0x03, 0x0b, 0xfa, 0x09, 0xfc, 0xff, 0x0b, 0xf7, 0x0a, 0xff, 0x0b, 0x0a,
  0xff, 0x08, 0xfd, 0x00, 0xfd, 0xf3, 0x09, 0x0b, 0x01, 0xfb, 0x07, 0x05,
  0x01, 0xfa, 0x0d, 0xfc, 0x03, 0x13, 0x04, 0xfe, 0x0c, 0x0b, 0x0d, 0x09,
  0xfc, 0x10, 0xf8, 0x00, 0x03, 0x04, 0x08, 0xfb, 0xfe, 0xfa, 0x06, 0xfe,
  0x00, 0x03, 0xff, 0xfd, 0xe3, 0x0c, 0x01, 0xfb, 0xff, 0xf5, 0x06, 0x0b,
  0xfd, 0xf9, 0x03, 0xfa, 0xfb, 0x0e, 0x08, 0x0a, 0x03, 0x0b, 0xfe, 0x00,
  0xf9, 0x0d, 0x0b, 0x0b, 0x01, 0x06, 0x05, 0x03, 0x02, 0x0a, 0x09, 0x04,
  0xf7, 0x0b, 0xfe, 0x00, 0x06, 0x08, 0xff, 0xfd, 0x2d, 0x0e, 0x03, 0x07,
  0x0a, 0x0d, 0x04, 0xfb, 0xfb, 0x08, 0x0b, 0x05, 0xfd, 0xff, 0x09, 0x03,
  0x0e, 0x02, 0xfd, 0x04, 0x08, 0x09, 0x05, 0x0b, 0x0b, 0x05, 0xfd, 0xfc,
  0x03, 0x04, 0xfc, 0x0d, 0xef, 0xf9, 0x07, 0xf9, 0x0b, 0x00, 0xfa, 0xfd,
  0xfe, 0xfc, 0x06, 0x09, 0x07, 0xff, 0xfc, 0x08, 0x01, 0xfe, 0x04, 0x02,
  0xf4, 0x07, 0x0b, 0x0d, 0xfc, 0x0a, 0x02, 0x0b, 0x07, 0x0d, 0xfd, 0x08,
  0x0e, 0x0a, 0xf9, 0x08, 0x01, 0xfd, 0x07, 0x04, 0xf2, 0x0d, 0x08, 0xf4,
  0x01, 0xfc, 0xff, 0x07, 0x0b, 0x0e, 0x09, 0x06, 0x01, 0xfe, 0x00, 0xfb,
  0x0a, 0xf8, 0x00, 0x04, 0xf6, 0x0c, 0x09, 0x04, 0x01, 0x04, 0xee, 0x0d,
  0x0b, 0x03, 0xfc, 0xfa, 0x02, 0x05, 0xf7, 0x09, 0x06, 0x07, 0x06, 0x07,
  0xf7, 0x00, 0xff, 0x04, 0x09, 0x0c, 0x06, 0x0e, 0x12, 0xfc, 0x0d, 0xff,
  0x06, 0xf6, 0x03, 0xff, 0xfc, 0x0e, 0x0f, 0x07, 0xf0, 0xfd, 0xfb, 0x09,
  0xf9, 0x09, 0x09, 0xfc, 0x09, 0x01, 0xfc, 0x02, 0x04, 0x04, 0x04, 0xf9,
  0x0b, 0xfb, 0xfd, 0x03, 0x00, 0xfb, 0x06, 0xf4, 0x07, 0xfb, 0xfd, 0x06,
  0xd0, 0x07, 0x07, 0x0c, 0x0e, 0x04, 0xfc, 0x02, 0x0b, 0xfc, 0x01, 0x0d,
  0xfe, 0x02, 0xff, 0xf5, 0x0b, 0x05, 0x06, 0xfd, 0x0e, 0xfe, 0x03, 0xf8,
  0x08, 0xfc, 0xfa, 0x06, 0x0a, 0xf8, 0x01, 0xf9, 0xf5, 0x05, 0xf9, 0x01,
  0xfe, 0xfa, 0x07, 0xf9, 0x01, 0xfa, 0x07, 0xf8, 0xf8, 0xf6, 0xfb, 0x07,
  0x05, 0x0b, 0xfd, 0xfd, 0xf8, 0x07, 0x01, 0xf7, 0xfc, 0x0d, 0xf5, 0x0d,
  0x04, 0xfe, 0x0b, 0x09, 0x00, 0x1f, 0xfc, 0x0a, 0xfc, 0xfd, 0x00, 0xff,
  0xfa, 0x01, 0x09, 0xfd, 0xfd, 0x04, 0xf4, 0xff, 0xfe, 0xfc, 0x10, 0xf8,
  0x0d, 0xec, 0xfe, 0x02, 0x01, 0x04, 0x05, 0x01, 0xf9, 0x03, 0xfd, 0x09,
  0x0c, 0xfd, 0x0d, 0xf9, 0xfe, 0x0a, 0x03, 0x09, 0xf8, 0xf6, 0xff, 0x0b,
  0xfc, 0x0c, 0x0c, 0x07, 0xfe, 0x10, 0x01, 0xfe, 0x04, 0x0f, 0x04, 0x09,
  0xf9, 0xfb, 0x09, 0xfb, 0x07, 0x17, 0x03, 0x03, 0x05, 0xfb, 0x02, 0x08,
  0xf7, 0xfb, 0x09, 0xf9, 0x0a, 0xfb, 0xed, 0x06, 0xfe, 0x0b, 0x08, 0x09,
  0x03, 0x13, 0xfc, 0x09, 0xfa, 0xf9, 0x03, 0xfd, 0x03, 0x0b, 0x0b, 0x07,
  0xfc, 0x0c, 0xf9, 0xf8, 0xf7, 0x09, 0x0c, 0x00, 0xf9, 0x05, 0xfd, 0x07,
  0x06, 0x07, 0xff, 0x0b, 0xf8, 0x08, 0x04, 0xf8, 0x09, 0x09, 0xf7, 0x0a,
  0x03, 0x07, 0x06, 0xf8, 0xff, 0x00, 0x05, 0x09, 0x03, 0x07, 0x04, 0x01,
  0xfb, 0x09, 0x04, 0x06, 0xfd, 0x0a, 0x05, 0x0a, 0xfc, 0x01, 0x0a, 0xfe,
  0x05, 0x03, 0xfe, 0x0d, 0x0b, 0x0d, 0xfd, 0xf9, 0x06, 0x0c, 0x06, 0x0c,
  0x01, 0x01, 0xf8, 0xfc, 0x0b, 0xfb, 0x11, 0xff, 0xf9, 0x00, 0x06, 0xf9,
  0x0c, 0x04, 0x00, 0xfa, 0xec, 0x01, 0x0b, 0xfc, 0x03, 0x0c, 0xfb, 0x0a,
  0x00, 0x05, 0x03, 0x06, 0x0e, 0xf6, 0xfd, 0x06, 0x05, 0x07, 0x03, 0x0d,
  0xfa, 0x04, 0x06, 0x04, 0x08, 0x00, 0x10, 0x0b, 0x07, 0xfe, 0x0c, 0x0e,
  0x0b, 0x19, 0x04, 0x01, 0x0b, 0x09, 0x0c, 0xfd, 0x0a, 0x09, 0xf9, 0x00,
  0x06, 0x07, 0x05, 0x00, 0xf8, 0xfe, 0xfd, 0x03, 0x02, 0xfd, 0x02, 0xfa,
  0x0d, 0xfe, 0x01, 0x08, 0xfa, 0x0a, 0x0b, 0xfd, 0x0b, 0x0a, 0x00, 0xfd,
  0xf7, 0x01, 0x09, 0x0e, 0x00, 0x09, 0xfe, 0x0c, 0x07, 0x01, 0x0a, 0x06,
  0xfc, 0x0b, 0xfb, 0xff, 0x0e, 0x06, 0x03, 0x0c, 0xfc, 0xfe, 0x09, 0x0a,
  0xff, 0xf9, 0x07, 0xfc, 0xfd, 0xfb, 0x0d, 0x0e, 0x08, 0x01, 0xfb, 0x01,
  0xf9, 0xf7, 0xf7, 0x05, 0x1b, 0x01, 0x06, 0xf7, 0xfe, 0x08, 0xf2, 0xf4,
  0x0a, 0xf4, 0xf8, 0x17, 0x08, 0xfb, 0xfa, 0x06, 0xfd, 0x13, 0x00, 0x07,
  0xf1, 0x04, 0xf0, 0xf6, 0x10, 0x0e, 0xfd, 0xfb, 0x02, 0xf7, 0x05, 0x08,
  0xfe, 0x02, 0xf7, 0x06, 0xf7, 0xf6, 0xf5, 0xfd, 0x08, 0x00, 0x04, 0x00,
  0xfe, 0x0e, 0xff, 0xfe, 0x07, 0x05, 0xff, 0x05, 0x0b, 0xf6, 0xf7, 0x03,
  0x00, 0xfe, 0x04, 0x02, 0xec, 0xf5, 0xfb, 0x0a, 0xfd, 0xfc, 0x00, 0x09,
  0xf4, 0x01, 0xfb, 0x0a, 0x0f, 0xf8, 0xf7, 0xfd, 0x04, 0xf3, 0x04, 0x09,
  0xfa, 0x03, 0xef, 0xf6, 0xfc, 0xf9, 0xfd, 0x06, 0x01, 0xf9, 0xf8, 0x0a,
  0x0a, 0x08, 0xf6, 0x06, 0x08, 0x06, 0x08, 0xfa, 0x03, 0xfb, 0x01, 0x09,
  0xfb, 0xf5, 0xf4, 0xff, 0xf4, 0xfb, 0xf4, 0xf9, 0x01, 0xf4, 0xf9, 0x04,
  0xfc, 0xff, 0x0f, 0xf5, 0x0b, 0x03, 0xff, 0xfe, 0xf6, 0x04, 0xfd, 0xfb,
  0xf6, 0x07, 0xf9, 0x0a, 0xfa, 0x04, 0x00, 0x03, 0x04, 0x0b, 0x0e, 0xfd,
  0xe2, 0x02, 0xf9, 0xff, 0x05, 0x15, 0x03, 0xf4, 0xfb, 0xfe, 0xf5, 0xf7,
  0x04, 0x06, 0xfa, 0x0b, 0xfc, 0xf1, 0x09, 0x01, 0xc7, 0xf6, 0x05, 0x09,
  0xf8, 0xe2, 0xfe, 0xf9, 0x08, 0x03, 0x03, 0xf7, 0x07, 0xfa, 0x06, 0x05,
  0x01, 0xfd, 0x07, 0xf5, 0xd6, 0x04, 0xf0, 0xf9, 0x00, 0x12, 0xfe, 0xf7,
  0x04, 0x04, 0xff, 0x07, 0xfd, 0xf9, 0xff, 0x06, 0x00, 0xf4, 0x10, 0xf4,
  0xdd, 0x05, 0xf7, 0xfc, 0xff, 0xfa, 0x19, 0x00, 0x06, 0x01, 0xff, 0x06,
  0x05, 0xff, 0xf6, 0x01, 0xfa, 0x05, 0x08, 0x01, 0x06, 0x01, 0x05, 0xfc,
  0xf7, 0x0e, 0x01, 0x05, 0xfb, 0x03, 0x02, 0xf6, 0xfc, 0x00, 0x08, 0x08,
  0x08, 0xf1, 0x10, 0xf7, 0xfe, 0xf4, 0xef, 0x01, 0xf9, 0x06, 0x0b, 0xfd,
  0xf4, 0xf8, 0x01, 0x09, 0x0b, 0xfd, 0x00, 0x09, 0xf8, 0xf4, 0x0c, 0x01,
  0x0a, 0xff, 0xf5, 0x01, 0x05, 0x1a, 0x03, 0xfd, 0xfc, 0x07, 0x05, 0x04,
  0x00, 0x07, 0xfb, 0xfb, 0xf7, 0xf9, 0xfd, 0xff, 0xff, 0x06, 0xff, 0xff,
  0x00, 0xf6, 0x00, 0xfc, 0x06, 0x01, 0xf7, 0xf5, 0x01, 0xf3, 0x02, 0x03,
  0x08, 0x0b, 0x0e, 0xfb, 0xf6, 0x06, 0xf1, 0xfc, 0x06, 0x2a, 0x0d, 0xf9,
  0xf5, 0xf4, 0xfc, 0xfb, 0x09, 0xf7, 0xfb, 0x07, 0xfb, 0xfc, 0x02, 0x06,
  0x08, 0x06, 0xf9, 0x06, 0xf3, 0xfd, 0x04, 0x04, 0x02, 0x02, 0x06, 0xfc,
  0xfe, 0xf5, 0xf9, 0x04, 0x00, 0xf1, 0x0e, 0x03, 0xec, 0x09, 0xfd, 0xf5,
  0xf8, 0x0b, 0x02, 0xfb, 0x02, 0x09, 0x08, 0xfd, 0x05, 0xfe, 0xf5, 0xff,
  0xff, 0xfe, 0x0a, 0x00, 0xeb, 0xfd, 0xf6, 0xfa, 0x00, 0xda, 0x18, 0xfa,
  0xfe, 0xf6, 0xf5, 0x02, 0x01, 0x00, 0xfc, 0x07, 0x06, 0xf4, 0xfd, 0x09,
  0xf6, 0x06, 0xf9, 0x05, 0xfd, 0xff, 0x03, 0xfc, 0xf6, 0xf6, 0x05, 0xf5,
  0x00, 0xf2, 0xfc, 0xfb, 0xfa, 0xfb, 0x0b, 0xf5, 0x07, 0xf9, 0xef, 0xfe,
  0xf6, 0xfd, 0xfd, 0x09, 0xff, 0xfd, 0xf4, 0x03, 0x0a, 0xfa, 0xfe, 0xf9,
  0x03, 0x04, 0x06, 0x02, 0xfd, 0xfe, 0x03, 0xf8, 0x06, 0xd5, 0x02, 0x09,
  0xfb, 0xf6, 0xfa, 0xf9, 0x04, 0xff, 0xfc, 0x02, 0xfb, 0xff, 0xff, 0xf7,
  0xf6, 0xf4, 0xfd, 0x01, 0xf8, 0x1a, 0x0e, 0xf7, 0x09, 0xfa, 0xf7, 0xf5,
  0x01, 0x01, 0xfd, 0x07, 0xfc, 0xfa, 0x09, 0xfb, 0x1b, 0x03, 0xff, 0xfd,
  0x01, 0x1b, 0x05, 0xf6, 0xfd, 0xfb, 0x04, 0x01, 0x13, 0x06, 0x01, 0x16,
  0xfe, 0xff, 0x03, 0x01, 0x31, 0x00, 0x05, 0x03, 0xfa, 0xe1, 0xfd, 0xfc,
  0x05, 0xfe, 0xf8, 0x02, 0x0b, 0xf5, 0x08, 0x09, 0xfa, 0x0c, 0xfd, 0x04,
  0x13, 0x06, 0xfa, 0xfc, 0xf6, 0x0d, 0xfb, 0x00, 0x05, 0x02, 0xf8, 0xfd,
  0x09, 0x01, 0xf5, 0xfb, 0xfd, 0xfd, 0x00, 0xf9, 0x0c, 0xfc, 0xf5, 0x07,
  0xf7, 0xe7, 0xf8, 0x02, 0xf8, 0x02, 0xf1, 0x03, 0x12, 0x04, 0xff, 0xfc,
  0xff, 0xfc, 0x04, 0xfb, 0x25, 0x08, 0x03, 0xf8, 0xff, 0x60, 0xec, 0x00,
  0xfe, 0x05, 0xfe, 0x04, 0xf6, 0xfd, 0xf4, 0xfb, 0xff, 0x05, 0x10, 0xf8,
  0x00, 0x03, 0xf2, 0xfd, 0xf9, 0x1d, 0x0f, 0xf3, 0xfa, 0x00, 0xfb, 0x03,
  0x08, 0xf7, 0x00, 0xfe, 0xf3, 0xf6, 0x13, 0xf8, 0x08, 0x04, 0x03, 0x08,
  0x09, 0xff, 0x08, 0xfa, 0x08, 0x06, 0xf9, 0xfe, 0x07, 0xfa, 0x05, 0xfe,
  0x01, 0xf1, 0x10, 0xfd, 0x08, 0x06, 0x00, 0xfa, 0xfe, 0x06, 0x11, 0x09,
  0x00, 0xf4, 0xf3, 0xfa, 0x09, 0x04, 0xff, 0x1a, 0x00, 0xf9, 0x0c, 0xfc,
  0x18, 0xf8, 0xf6, 0x00, 0x07, 0x08, 0x18, 0xff, 0x00, 0xfa, 0xfe, 0x02,
  0x05, 0xf5, 0x08, 0x0f, 0x08, 0xef, 0xff, 0x09, 0xef, 0xfe, 0x03, 0xfc,
  0xff, 0xe9, 0x09, 0xf5, 0x00, 0xff, 0x01, 0x01, 0x00, 0xf3, 0x01, 0x07,
  0x04, 0xf5, 0x0b, 0xfb, 0x15, 0x06, 0xf9, 0xfe, 0xfb, 0x2f, 0x05, 0xfd,
  0xf9, 0xfc, 0x06, 0xfa, 0x04, 0x06, 0xf5, 0x06, 0xf8, 0xf8, 0xff, 0xf9,
  0x02, 0x05, 0xf0, 0xf4, 0x06, 0x19, 0x0f, 0x08, 0xfe, 0xfd, 0xf9, 0xfd,
  0x0e, 0xfd, 0xf8, 0x0f, 0xfd, 0xfb, 0xfe, 0x02, 0x22, 0xf7, 0x02, 0xfa,
  0xf4, 0x0a, 0xfe, 0xfd, 0xf3, 0x00, 0xf6, 0x03, 0xf9, 0xf6, 0xf4, 0x03,
  0x05, 0xf5, 0xfe, 0xf7, 0x09, 0xfb, 0xf2, 0x05, 0xf7, 0x4a, 0x06, 0xfd,
  0x02, 0x09, 0x04, 0x07, 0x0d, 0x04, 0x06, 0x05, 0x01, 0x07, 0xfd, 0x00,
  0xd4, 0x06, 0xfc, 0xf5, 0x05, 0xd2, 0x04, 0xfc, 0xff, 0xfc, 0x04, 0xfc,
  0x05, 0xfa, 0x00, 0x0e, 0x07, 0xfd, 0x11, 0x07, 0x11, 0x01, 0x05, 0x08,
  0xf9, 0x0e, 0x12, 0x05, 0xf8, 0xfe, 0x07, 0xfd, 0x02, 0x07, 0xff, 0x03,
  0xf6, 0x06, 0x03, 0xff, 0x20, 0xf5, 0xfd, 0x07, 0xfc, 0x18, 0x0a, 0xfe,
  0xf6, 0x01, 0x00, 0xf6, 0xf9, 0x00, 0xfb, 0xf6, 0x08, 0x0e, 0xff, 0x02,
  0xec, 0x00, 0xff, 0xf9, 0xfa, 0xfc, 0x04, 0x0e, 0xfa, 0x05, 0xfd, 0x07,
  0x04, 0x0e, 0x00, 0xfd, 0x08, 0xee, 0xfe, 0x08, 0xec, 0x10, 0x0a, 0x07,
  0x0e, 0x06, 0xff, 0x04, 0x0f, 0x08, 0x08, 0x09, 0xf7, 0x02, 0xfb, 0xff,
  0x01, 0x05, 0x05, 0x02, 0x03, 0x0c, 0x06, 0x04, 0x09, 0xfe, 0x06, 0x05,
  0x08, 0xff, 0x04, 0x0c, 0x04, 0x00, 0xf9, 0xff, 0x01, 0xfb, 0xfa, 0x0a,
  0x15, 0x09, 0xff, 0x05, 0x04, 0xe8, 0x04, 0x07, 0x0f, 0x0a, 0x05, 0x04,
  0x05, 0x08, 0x08, 0x04, 0x04, 0xf5, 0x0c, 0x0a, 0x00, 0x00, 0x0f, 0x0a,
  0xfa, 0x06, 0x0e, 0x0b, 0xfe, 0xfc, 0x01, 0x00, 0x01, 0x0d, 0x02, 0x0b,
  0xfb, 0x07, 0x06, 0xff, 0x00, 0x07, 0xfe, 0xf8, 0x02, 0xf9, 0x0b, 0xfe,
  0xfb, 0x0d, 0xfe, 0xfd, 0xfd, 0x05, 0x07, 0x0e, 0xfe, 0xf4, 0x06, 0x0d,
  0xf5, 0x0a, 0x09, 0x03, 0xf9, 0x0b, 0xfb, 0x0f, 0x03, 0x0a, 0xfa, 0x07,
  0xfd, 0x03, 0x06, 0x0a, 0x07, 0x0b, 0x01, 0xf9, 0x2a, 0x00, 0x08, 0x08,
  0x0d, 0xee, 0xe4, 0x0e, 0x04, 0xfb, 0x01, 0xff, 0x34, 0x04, 0x07, 0xf9,
  0x0d, 0x1f, 0xfb, 0x0c, 0x0b, 0xfe, 0x07, 0x01, 0x0a, 0x05, 0xe4, 0x0f,
  0xfc, 0x01, 0x00, 0x09, 0xff, 0x10, 0xfa, 0x0a, 0x06, 0x0b, 0x09, 0x00,
  0x09, 0x07, 0x0d, 0x0a, 0x08, 0xda, 0x18, 0xfb, 0x0f, 0xfa, 0x08, 0xfb,
  0xfb, 0xfc, 0xfc, 0xfb, 0x0a, 0x07, 0x01, 0x0a, 0x04, 0x0b, 0x0d, 0xfb,
  0x00, 0xdc, 0x07, 0x0f, 0x0f, 0x00, 0xfb, 0x0e, 0x09, 0x09, 0x01, 0x07,
  0x0e, 0xfc, 0xf9, 0x00, 0x05, 0x0e, 0x00, 0xfb, 0x09, 0x0e, 0xfe, 0x00,
  0x03, 0x0b, 0x05, 0x02, 0x01, 0xfa, 0x0b, 0xfb, 0x0e, 0x00, 0x07, 0x0b,
  0x13, 0x08, 0x01, 0xf8, 0x00, 0x0f, 0x0b, 0x01, 0x0d, 0x09, 0xfd, 0x09,
  0x05, 0xfe, 0x03, 0x04, 0x06, 0x10, 0x0c, 0x00, 0x31, 0x0b, 0x08, 0x0d,
  0x04, 0x33, 0xf9, 0x09, 0x0e, 0xfa, 0x0c, 0x07, 0x03, 0xff, 0x00, 0x0b,
  0xfa, 0x08, 0x0d, 0xfd, 0x05, 0x0d, 0x10, 0x00, 0x08, 0xff, 0x08, 0x05,
  0x01, 0x06, 0x09, 0x05, 0x07, 0x01, 0x03, 0x07, 0x05, 0xfe, 0x09, 0xfe,
  0x0f, 0x0a, 0x03, 0xf9, 0xfd, 0x2e, 0xfc, 0x0e, 0x0c, 0xfb, 0x0e, 0xff,
  0xfc, 0x0f, 0x0e, 0xe8, 0x0c, 0x01, 0x03, 0x0d, 0xed, 0xfd, 0x07, 0xfd,
  0x0b, 0xfb, 0xfc, 0x0b, 0x07, 0x01, 0x04, 0x01, 0x0b, 0x0a, 0x01, 0xf6,
  0x06, 0xff, 0xf7, 0x0e, 0x0d, 0x01, 0x0e, 0xfc, 0x06, 0x10, 0x07, 0x0e,
  0x0e, 0x0e, 0x0e, 0x0f, 0x05, 0x09, 0x02, 0x04, 0xff, 0x03, 0x05, 0x0a,
  0x13, 0x0e, 0x00, 0x04, 0x04, 0x45, 0x01, 0x0f, 0x04, 0xfd, 0x09, 0x01,
  0xf4, 0x05, 0xfe, 0x00, 0x08, 0xfa, 0x10, 0x05, 0x3e, 0x0a, 0x05, 0xff,
  0x02, 0xfb, 0xfe, 0x00, 0x0a, 0x05, 0x02, 0xfe, 0x18, 0x08, 0x01, 0x06,
  0xfe, 0x1e, 0x10, 0x0a, 0x12, 0x0c, 0xff, 0xfb, 0x01, 0x0b, 0xe9, 0xfe,
  0x01, 0x08, 0xff, 0x0e, 0x16, 0x10, 0xfe, 0x09, 0x01, 0x11, 0x0b, 0xfa,
  0xe8, 0x0a, 0x0e, 0x0c, 0x04, 0x03, 0xf7, 0x10, 0xfc, 0xfc, 0x0e, 0x04,
  0x04, 0xff, 0xff, 0x00, 0x00, 0x0b, 0x03, 0x06, 0x04, 0xfe, 0xfd, 0xfb,
  0xf9, 0x2e, 0x0a, 0x11, 0x0f, 0x04, 0x0f, 0x0f, 0xf8, 0xfb, 0x04, 0x0f,
  0xfb, 0xf7, 0x08, 0x0a, 0xc7, 0x12, 0x0a, 0x01, 0x07, 0x27, 0x02, 0xfd,
  0x0b, 0x02, 0x01, 0xfc, 0xe6, 0x03, 0xff, 0x18, 0x0c, 0x01, 0xfc, 0x01,
  0x3f, 0x0b, 0x03, 0x03, 0x01, 0xde, 0xea, 0x06, 0xfe, 0x05, 0x02, 0xfd,
  0xfd, 0x07, 0x03, 0xf5, 0x02, 0x02, 0x01, 0x01, 0xcf, 0x07, 0xfc, 0x04,
  0x03, 0xfd, 0x02, 0x10, 0x09, 0x0e, 0xfb, 0xfe, 0xfb, 0x08, 0x04, 0x0e,
  0x0a, 0x0e, 0x0a, 0xff, 0x4d, 0x04, 0x05, 0x05, 0x0b, 0x29, 0x08, 0x06,
  0x00, 0x09, 0x08, 0xfc, 0xf6, 0x08, 0x10, 0x0f, 0xff, 0xfc, 0xff, 0x0e,
  0xf4, 0x04, 0x00, 0x07, 0x0e, 0xaf, 0xfe, 0xfe, 0x0d, 0x0c, 0xff, 0x02,
  0x00, 0x0d, 0xfe, 0x02, 0x01, 0x08, 0x0b, 0x0e, 0xfd, 0xfd, 0x0d, 0x0c,
  0x07, 0x2c, 0x01, 0x06, 0xfc, 0xfb, 0xfc, 0x04, 0xf3, 0xfd, 0x08, 0xfa,
  0x06, 0x06, 0x11, 0xfb, 0xd7, 0x06, 0x00, 0x03, 0x08, 0x2a, 0x01, 0xfe,
  0x0f, 0x00, 0x0a, 0xff, 0x06, 0x0b, 0x06, 0xfe, 0x0a, 0x18, 0x0e, 0x03,
  0xfd, 0xfb, 0x0d, 0x0d, 0xf9, 0xf1, 0x07, 0xf9, 0x02, 0x0d, 0xff, 0x02,
  0xf3, 0xff, 0x01, 0xff, 0xfc, 0x0b, 0x0c, 0xf9, 0x1a, 0x07, 0x0a, 0x09,
  0xff, 0x02, 0x06, 0x0b, 0x0d, 0x04, 0x0f, 0x07, 0xf5, 0x0e, 0xf8, 0x15,
  0xfc, 0x08, 0x02, 0xf9, 0x1e, 0x06, 0x03, 0xfb, 0x04, 0x12, 0x11, 0xfe,
  0xff, 0x06, 0x0e, 0x0e, 0x09, 0x00, 0x07, 0x09, 0x0d, 0xfd, 0xf0, 0x0b,
  0xbf, 0x12, 0xfc, 0xfe, 0xf9, 0x0e, 0xf5, 0xfc, 0x07, 0xfb, 0xfa, 0x06,
  0x0f, 0x04, 0x0c, 0x03, 0x04, 0x0a, 0xfd, 0xf9, 0xfa, 0x00, 0x09, 0x08,
  0x04, 0x14, 0x0b, 0xfe, 0x0f, 0xfe, 0x05, 0xff, 0xf8, 0x05, 0x0b, 0x0d,
  0xfa, 0x0d, 0x03, 0x0d, 0xdc, 0x0d, 0xfe, 0x07, 0xf9, 0xce, 0xf9, 0xfe,
  0xfb, 0x0c, 0xfa, 0x0c, 0x0d, 0x09, 0xfe, 0x01, 0xfe, 0x06, 0x09, 0x0b,
  0xfc, 0x0a, 0x05, 0xfc, 0x02, 0xf0, 0xfd, 0x0e, 0x04, 0xfc, 0x00, 0x03,
  0xfd, 0x0e, 0x04, 0x02, 0x0a, 0x01, 0xfe, 0x08, 0xd8, 0x0f, 0xfe, 0xfe,
  0x08, 0x09, 0xfb, 0x04, 0x02, 0x04, 0xff, 0x02, 0xfc, 0x03, 0x0c, 0x02,
  0xfa, 0xfc, 0x0e, 0x06, 0xd3, 0x05, 0xfe, 0x0d, 0xfe, 0x32, 0x0b, 0x09,
  0x08, 0xf9, 0x02, 0x0f, 0x04, 0xff, 0x0a, 0xf9, 0x01, 0xfc, 0x0e, 0x0d,
  0xe4, 0x10, 0x00, 0x0b, 0x0a, 0x07, 0x08, 0xfa, 0x01, 0xfa, 0x0e, 0x0b,
  0x0d, 0xf3, 0x01, 0xf9, 0xff, 0x05, 0xfa, 0x02, 0xfe, 0xf9, 0xf8, 0xf4,
  0x00, 0x03, 0x0a, 0x04, 0x01, 0xfb, 0xf4, 0xfd, 0xf6, 0xff, 0x02, 0x06,
  0x00, 0x0c, 0xff, 0xf9, 0xe8, 0x09, 0xfa, 0xf4, 0x07, 0xf8, 0xf8, 0x07,
  0x03, 0xf9, 0xfb, 0x0b, 0xf2, 0xf2, 0xf4, 0x08, 0x06, 0xec, 0xf4, 0x04,
  0x0c, 0x0b, 0xf7, 0x08, 0xf3, 0x11, 0x07, 0xfb, 0xf9, 0xf9, 0xf3, 0x03,
  0xf9, 0x01, 0xff, 0x0b, 0xff, 0xf4, 0xf6, 0x07, 0xe1, 0xf8, 0xf6, 0x02,
  0xfa, 0xf3, 0xf2, 0x01, 0xf4, 0x05, 0x03, 0xfe, 0x00, 0xfd, 0xf9, 0x12,
  0x02, 0xff, 0xec, 0xf8, 0xfc, 0x01, 0xf2, 0x05, 0x06, 0x0d, 0x03, 0xf9,
  0x04, 0xff, 0x05, 0xf6, 0xf3, 0x05, 0x05, 0xff, 0xf3, 0x03, 0xff, 0xf9,
  0x11, 0xfd, 0x02, 0xfd, 0xf4, 0x03, 0x05, 0xf9, 0x00, 0xf3, 0xf7, 0xf9,
  0xf5, 0xf4, 0x08, 0x04, 0xfe, 0xf8, 0x00, 0xf4, 0xf7, 0xfa, 0xf4, 0x04,
  0xf8, 0xfd, 0x0b, 0xfc, 0x00, 0xfe, 0xf1, 0xfe, 0xfd, 0x01, 0xf7, 0x0e,
  0xf7, 0x06, 0x03, 0x07, 0x01, 0x01, 0xfc, 0xf6, 0x08, 0xf9, 0xef, 0xf4,
  0x05, 0xfc, 0xf8, 0xf4, 0x16, 0x02, 0x01, 0xff, 0x04, 0x10, 0x02, 0xf5,
  0x08, 0x05, 0xf5, 0x04, 0xf4, 0xe9, 0xf1, 0x03, 0xf8, 0x00, 0xfb, 0xf7,
  0xf7, 0x02, 0xfd, 0x0b, 0xf7, 0xf6, 0xf6, 0xfe, 0xfe, 0xf5, 0xf2, 0x04,
  0xff, 0xef, 0x02, 0x01, 0xf5, 0xfd, 0x00, 0x04, 0xfa, 0xf6, 0xf3, 0x05,
  0x01, 0x04, 0xfe, 0xf6, 0x01, 0x09, 0x05, 0x04, 0x00, 0xff, 0x02, 0x04,
  0xf7, 0x09, 0x01, 0xff, 0x0b, 0xfa, 0x05, 0x0f, 0x02, 0x04, 0xf5, 0x01,
  0x07, 0xf3, 0x02, 0xf7, 0x01, 0x1f, 0x0c, 0x07, 0x05, 0xfc, 0xf7, 0xfe,
  0xfb, 0xf6, 0x07, 0xfe, 0x08, 0xf3, 0xec, 0xff, 0x06, 0xf3, 0xf5, 0xf4,
  0x04, 0xfa, 0x01, 0x00, 0x07, 0x08, 0xf4, 0xfa, 0x15, 0x04, 0x00, 0xfc,
  0xfd, 0xff, 0xf8, 0xfa, 0x0b, 0x09, 0xf9, 0xfe, 0xf4, 0x16, 0xff, 0x05,
  0xf6, 0x03, 0xf3, 0xf4, 0xf9, 0xfd, 0xfd, 0xf9, 0x00, 0x04, 0xfa, 0xfa,
  0x00, 0xf9, 0xf8, 0xfd, 0xff, 0x09, 0xff, 0x0a, 0xfe, 0x04, 0x04, 0x08,
  0x04, 0xf7, 0x03, 0x0c, 0xf5, 0x06, 0xfb, 0xf4, 0x46, 0xfb, 0x01, 0x06,
  0xf4, 0x0c, 0x00, 0xfc, 0xf9, 0xf6, 0xf7, 0x00, 0xfe, 0x06, 0x03, 0x10,
  0xfe, 0xee, 0xf9, 0xff, 0x0b, 0xf6, 0xfb, 0x09, 0xf9, 0xed, 0x08, 0x03,
  0xfe, 0xff, 0x03, 0xf7, 0x13, 0xfc, 0xff, 0x09, 0xf6, 0xfb, 0xf3, 0xfa,
  0x0d, 0x07, 0xfe, 0xfc, 0x07, 0xf5, 0x04, 0xfb, 0xfa, 0x04, 0xf3, 0xfe,
  0x0c, 0x03, 0xfa, 0xf7, 0xf4, 0xf8, 0xfb, 0xf5, 0x07, 0xf4, 0x04, 0xfb,
  0xfa, 0xfb, 0x03, 0xf5, 0xfb, 0x02, 0xff, 0xf3, 0xee, 0x05, 0xf5, 0x07,
  0xfc, 0x0a, 0x0e, 0x05, 0x1b, 0xff, 0x01, 0xfb, 0xf6, 0xf3, 0xfa, 0xf6,
  0xfe, 0xf9, 0x03, 0xf8, 0x21, 0xf3, 0x04, 0xfe, 0xf5, 0xfb, 0x0b, 0xfe,
  0x12, 0xfd, 0xf1, 0xfa, 0x05, 0xf7, 0xef, 0x05, 0xf3, 0x00, 0xf3, 0xf6,
  0x25, 0xfa, 0xfb, 0x0a, 0x05, 0xf6, 0x0b, 0xf3, 0xeb, 0xfe, 0xee, 0x04,
  0xfa, 0x1a, 0x02, 0x01, 0xf4, 0x01, 0xfe, 0xf6, 0x06, 0x07, 0x02, 0x01,
  0xf5, 0xff, 0x05, 0xf5, 0xfc, 0xf7, 0xfe, 0xff, 0x05, 0x33, 0xfb, 0x00,
  0x01, 0x03, 0xf6, 0x04, 0x0c, 0xfe, 0xfa, 0xff, 0xf8, 0xf2, 0xff, 0xf3,
  0xe4, 0x07, 0xf0, 0xf6, 0xf9, 0xfb, 0x05, 0xfc, 0xf4, 0x01, 0x02, 0x01,
  0xe3, 0xf2, 0xf6, 0x0b, 0x08, 0x06, 0xf9, 0xfe, 0x34, 0xf4, 0xf7, 0x09,
  0x05, 0xd9, 0x01, 0xfd, 0xfc, 0x08, 0xf9, 0xf5, 0x00, 0xf1, 0x05, 0x0d,
  0xf4, 0xfa, 0x04, 0xf9, 0xed, 0x06, 0xf9, 0x04, 0xff, 0xf8, 0xf6, 0xfc,
  0xff, 0x05, 0x04, 0xfa, 0x0f, 0xf5, 0x04, 0x07, 0x00, 0xf9, 0x0f, 0xf6,
  0x31, 0x02, 0xf8, 0xfa, 0x08, 0xeb, 0x0a, 0xff, 0x03, 0x05, 0xf3, 0x00,
  0x0b, 0x05, 0xf3, 0xf8, 0xfc, 0x00, 0x02, 0xf4, 0xfe, 0xf9, 0xf2, 0x01,
  0xff, 0xf8, 0xff, 0xf8, 0x07, 0xf3, 0xf2, 0x01, 0x0a, 0xf4, 0xfe, 0xfa,
  0x05, 0x12, 0x09, 0xf8, 0xf8, 0xfe, 0xf1, 0x00, 0xf5, 0x0c, 0xfa, 0xfd,
  0x02, 0xfd, 0xf9, 0x02, 0x0d, 0x05, 0xfb, 0x0e, 0xfd, 0x0c, 0x04, 0xfe,
  0xf8, 0xfa, 0xfb, 0xf5, 0x04, 0x0b, 0x02, 0x06, 0x03, 0xfe, 0xfd, 0xfc,
  0x05, 0x03, 0xfd, 0x00, 0xfe, 0xf9, 0x01, 0xf6, 0x01, 0xff, 0xff, 0xf4,
  0xf7, 0xf7, 0x0d, 0x04, 0x08, 0x05, 0x00, 0x02, 0xf7, 0xfe, 0xf9, 0x00,
  0xfd, 0x07, 0x0c, 0xf2, 0x07, 0x01, 0xfb, 0x09, 0xf5, 0x00, 0xff, 0xf6,
  0xfd, 0x05, 0xf6, 0xff, 0x08, 0xf3, 0xfb, 0x09, 0xff, 0x01, 0x09, 0xfa,
  0x02, 0x00, 0x00, 0xfb, 0x05, 0x05, 0x03, 0x02, 0xfe, 0xf4, 0x01, 0xfd,
  0x11, 0xfd, 0xf4, 0x09, 0x08, 0xf8, 0xfe, 0x05, 0xef, 0xf9, 0xfa, 0x00,
  0xf6, 0x03, 0xfb, 0x08, 0xfd, 0x05, 0x02, 0xfb, 0x04, 0xfd, 0xf3, 0x00,
  0x05, 0xf7, 0x06, 0x05, 0xfc, 0x05, 0xff, 0xf9, 0x00, 0xfe, 0x02, 0x09,
  0x04, 0xf8, 0xf3, 0xff, 0x00, 0xf6, 0x06, 0xfe, 0xfd, 0x04, 0x0d, 0xf5,
  0x0a, 0xfd, 0xf8, 0x03, 0xf8, 0xdd, 0xf9, 0xf4, 0xf7, 0xf8, 0xf2, 0xf9,
  0x14, 0xf8, 0x00, 0x09, 0x01, 0x00, 0x11, 0xfa, 0x03, 0xfb, 0xf0, 0xfa,
  0xf4, 0x11, 0xfc, 0xf9, 0xf7, 0xfe, 0x05, 0xfd, 0x02, 0xfd, 0xfb, 0x06,
  0xf3, 0xf9, 0x10, 0xfd, 0xe5, 0xf3, 0xf5, 0x05, 0x01, 0xff, 0x07, 0x09,
  0xff, 0xfb, 0x01, 0x01, 0x0c, 0xf5, 0xf3, 0x08, 0x04, 0xfd, 0xff, 0xfe,
  0xe8, 0xfa, 0x03, 0x08, 0xfc, 0x1f, 0x00, 0x03, 0xff, 0xf7, 0x00, 0xf3,
  0xfd, 0xf9, 0xfe, 0xfc, 0xfa, 0x01, 0x04, 0x07, 0xff, 0xf9, 0xf1, 0xfc,
  0x04, 0x07, 0x07, 0xfd, 0xf3, 0xfd, 0xfd, 0xf8, 0xff, 0xf6, 0xfe, 0xff,
  0xff, 0xf9, 0x05, 0x0e, 0xef, 0x0a, 0xf5, 0xfc, 0x13, 0xff, 0x00, 0x07,
  0x07, 0xf7, 0xfd, 0x10, 0x0b, 0x02, 0xf9, 0x05, 0xf4, 0x34, 0x05, 0x08,
  0x23, 0x0c, 0xf4, 0xf4, 0x0c, 0xf8, 0x0d, 0x08, 0xf4, 0xfe, 0xfd, 0xf8,
  0xfd, 0x07, 0xf5, 0x09, 0xf7, 0xf2, 0x02, 0xf5, 0x08, 0x08, 0xf1, 0xf7,
  0xff, 0x10, 0xfc, 0xf8, 0x00, 0xff, 0x02, 0x00, 0xfc, 0xf4, 0xfd, 0x0b,
  0xfa, 0x0e, 0x04, 0x06, 0x25, 0x05, 0xf5, 0x07, 0xfd, 0xfa, 0xea, 0xfd,
  0xfe, 0xfa, 0x01, 0x07, 0xfc, 0xfe, 0xfa, 0x05, 0xf8, 0x01, 0x0c, 0x08,
  0x03, 0x04, 0xf6, 0x0a, 0xfa, 0x04, 0xf5, 0xfc, 0xfd, 0x04, 0xf4, 0xf8,
  0x00, 0xf3, 0xfb, 0xfd, 0xf7, 0x0b, 0x0d, 0x00, 0x12, 0xf9, 0xf2, 0x04,
  0x08, 0xfd, 0xde, 0x09, 0x06, 0xf7, 0x00, 0xfb, 0xf6, 0xfc, 0x00, 0x09,
  0x03, 0xf8, 0xf9, 0x01, 0x07, 0xf8, 0x04, 0xfe, 0xfe, 0x01, 0xfe, 0x00,
  0xfd, 0xf7, 0xfd, 0x05, 0x15, 0x07, 0x01, 0x05, 0xf6, 0xfe, 0x05, 0x01,
  0xcd, 0xff, 0xf0, 0x03, 0xfe, 0xea, 0xf0, 0x03, 0x04, 0x04, 0x06, 0xf7,
  0xef, 0x05, 0xfe, 0x05, 0x02, 0x00, 0x04, 0xfe, 0xb5, 0x07, 0xfc, 0x02,
  0xfa, 0xd7, 0xf8, 0xf8, 0xfc, 0xf8, 0xf8, 0xf9, 0x05, 0xf3, 0xf8, 0x0a,
  0xfc, 0x06, 0x0b, 0xfb, 0x31, 0x04, 0xf8, 0x09, 0xf9, 0xfe, 0xef, 0xf7,
  0xfd, 0x01, 0xf8, 0xff, 0x06, 0x00, 0x08, 0x06, 0xf8, 0x03, 0x07, 0xf9,
  0xf5, 0x04, 0x02, 0x07, 0xfe, 0x26, 0xe9, 0x07, 0x05, 0xfa, 0x02, 0xf6,
  0xfc, 0x08, 0x06, 0x0e, 0x06, 0xf8, 0x04, 0xf8, 0x01, 0xf9, 0xf7, 0xf6,
  0x05, 0x1e, 0xfc, 0xfb, 0x00, 0x01, 0xf1, 0xfa, 0x08, 0x05, 0x07, 0x00,
  0xf4, 0xfd, 0x05, 0x03, 0x02, 0xf7, 0x02, 0xff, 0x02, 0xfd, 0x0b, 0xfe,
  0xfa, 0x03, 0x01, 0x08, 0xf0, 0x04, 0xff, 0xfb, 0xf4, 0xe6, 0x06, 0x02,
  0x0e, 0xf5, 0xf2, 0xfb, 0xf6, 0x21, 0xfc, 0xf9, 0xf8, 0xf9, 0xfb, 0xfc,
  0x04, 0x04, 0xf7, 0x09, 0x02, 0xff, 0x02, 0xf8, 0x10, 0x02, 0xf4, 0xf5,
  0x03, 0xfc, 0x03, 0x04, 0x06, 0xf4, 0xf6, 0x04, 0x01, 0xfb, 0x09, 0x00,
  0xf7, 0x02, 0xfa, 0xfd, 0xbc, 0xf5, 0xf8, 0x0b, 0xf3, 0xf7, 0x0b, 0xfc,
  0x06, 0xff, 0x07, 0xff, 0x05, 0xf9, 0x01, 0x15, 0x05, 0xfd, 0xf9, 0xf9,
  0x0a, 0xf6, 0xf2, 0x09, 0x06, 0x2b, 0x08, 0xfd, 0xfe, 0x03, 0xf6, 0x09,
  0x0e, 0xfb, 0x00, 0x06, 0x08, 0x03, 0x03, 0xf9, 0xe6, 0x0a, 0xfe, 0xfe,
  0x01, 0x32, 0xdc, 0xf6, 0xfa, 0xf3, 0x01, 0x05, 0x01, 0xf3, 0xfd, 0xfb,
  0xfa, 0xfc, 0x05, 0xfa, 0xf3, 0xf8, 0xf7, 0x03, 0x05, 0x68, 0x04, 0x00,
  0xf5, 0x01, 0xfd, 0x03, 0x04, 0xf7, 0xf4, 0xfe, 0x06, 0x05, 0x08, 0xf8,
  0x41, 0x03, 0x03, 0x05, 0x04, 0xf8, 0x0c, 0x08, 0xf8, 0xff, 0xf7, 0x08,
  0x08, 0x06, 0x00, 0x0a, 0x04, 0xf5, 0x0c, 0xfb, 0x00, 0xfa, 0x02, 0x01,
  0xff, 0x04, 0x14, 0xf6, 0x0a, 0xfc, 0xf9, 0xf6, 0xff, 0x04, 0xff, 0x01,
  0xfc, 0x0a, 0xff, 0xfe, 0x96, 0x0a, 0xf1, 0xfa, 0x08, 0x00, 0x04, 0x0b,
  0xfb, 0x04, 0xfa, 0x02, 0x11, 0x01, 0x05, 0x09, 0xf4, 0x09, 0x0d, 0xf8,
  0x06, 0xf9, 0xf9, 0xf8, 0x05, 0x1f, 0x06, 0x09, 0x05, 0x07, 0xf6, 0xf7,
  0xfd, 0x07, 0xf8, 0x06, 0x06, 0x05, 0xfe, 0xfa, 0x2f, 0x03, 0x02, 0xf9,
  0xfd, 0xf4, 0x13, 0xfa, 0x04, 0x00, 0x01, 0x02, 0xfb, 0xf3, 0x08, 0x10,
  0x05, 0xf3, 0xff, 0x06, 0xe3, 0x0b, 0x02, 0xf7, 0xf7, 0xcf, 0x09, 0xf7,
  0x05, 0xfb, 0x04, 0xf4, 0x04, 0xf9, 0xf5, 0x0b, 0x02, 0xf9, 0x09, 0x05,
  0xc3, 0x07, 0xfc, 0xf5, 0xf4, 0xfe, 0xe3, 0xf7, 0xff, 0xfc, 0xff, 0xf9,
  0x0f, 0xfa, 0x04, 0x0b, 0x09, 0x0e, 0x00, 0xfc, 0xf4, 0x00, 0xef, 0xf6,
  0xfd, 0xb8, 0x19, 0x06, 0x00, 0x07, 0x01, 0x09, 0x02, 0x05, 0xf8, 0xf7,
  0xf6, 0x0a, 0xfe, 0xf6, 0x0d, 0x04, 0xff, 0xff, 0x05, 0x5c, 0x1b, 0x02,
  0xf6, 0x03, 0xf3, 0xfd, 0x10, 0xf5, 0xf6, 0x08, 0xfd, 0x10, 0x05, 0xf8,
  0xff, 0xff, 0xf5, 0x00, 0x08, 0x0c, 0x2d, 0xfe, 0xf7, 0xfc, 0x03, 0xfb,
  0xfa, 0xf2, 0xfd, 0x08, 0xf4, 0x00, 0x04, 0x02, 0x1a, 0xfc, 0xfe, 0x06,
  0xf8, 0xf2, 0x05, 0x07, 0xfb, 0xfd, 0xf5, 0x08, 0x12, 0xf8, 0x0a, 0x02,
  0x02, 0xfd, 0x11, 0x06, 0x13, 0x09, 0xfa, 0x00, 0xf6, 0x0d, 0xfc, 0x02,
  0x0a, 0xf7, 0xf4, 0x00, 0xf8, 0x02, 0x03, 0x0d, 0xf6, 0x00, 0xff, 0x05,
  0x12, 0x02, 0xf9, 0xfb, 0xff, 0x0a, 0xee, 0x04, 0x0a, 0xf5, 0xf3, 0xf5,
  0xf3, 0xfe, 0x0a, 0x0a, 0xf9, 0x0c, 0x0f, 0x01, 0xd5, 0xfe, 0xfa, 0xfd,
  0x09, 0xef, 0xfc, 0xf7, 0x00, 0x01, 0x05, 0xfa, 0xfe, 0xf3, 0xfb, 0x01,
  0x03, 0x0b, 0x14, 0xff, 0x3e, 0xf9, 0x03, 0x00, 0xf9, 0x08, 0xfb, 0xfa,
  0xfe, 0x05, 0x04, 0xfc, 0x10, 0x07, 0xfb, 0xff, 0xf3, 0x06, 0xfe, 0xf9,
  0x07, 0xf7, 0x01, 0xf8, 0xf3, 0x10, 0xe8, 0x04, 0x06, 0xf8, 0x01, 0xfa,
  0x11, 0xfd, 0xfd, 0x04, 0xfc, 0x05, 0x02, 0x02, 0xf7, 0x03, 0xf8, 0x02,
  0x04, 0xf6, 0x11, 0x03, 0x01, 0x05, 0xf5, 0x03, 0x0b, 0xfa, 0xfe, 0x09,
  0xfd, 0x01, 0xfe, 0xfa, 0xfc, 0xff, 0xfe, 0xff, 0xf7, 0xfa, 0x0a, 0xfe,
  0x01, 0xf4, 0x03, 0x05, 0x0b, 0x01, 0xfa, 0xfa, 0xf6, 0x10, 0x11, 0xfa,
  0xdd, 0x03, 0x03, 0xf8, 0x07, 0xc6, 0x12, 0xf4, 0xfa, 0xfc, 0xf8, 0xf8,
  0x04, 0x01, 0x05, 0x0d, 0x00, 0xf4, 0x0c, 0xfb, 0x3e, 0x06, 0xf8, 0x03,
  0xf8, 0xff, 0x16, 0xf9, 0xfa, 0xf6, 0xf3, 0x02, 0xf7, 0x04, 0xf6, 0x02,
  0xf5, 0xf6, 0x04, 0x04, 0x00, 0xf5, 0xef, 0xf4, 0xf4, 0x1a, 0x09, 0x0a,
  0x07, 0xf5, 0xf9, 0xf7, 0x0a, 0xf9, 0x04, 0xfa, 0xfd, 0xf9, 0x06, 0x16,
  0x11, 0x0c, 0x00, 0x07, 0x0f, 0x0e, 0x02, 0xfc, 0x09, 0x05, 0x06, 0x22,
  0x0c, 0xf2, 0x00, 0x00, 0xff, 0x23, 0x05, 0x01, 0xff, 0x0e, 0xef, 0x03,
  0x0c, 0x17, 0x03, 0xf6, 0x01, 0xf8, 0xff, 0xfe, 0x01, 0xf7, 0x08, 0x0c,
  0xfd, 0xf0, 0x00, 0x00, 0x09, 0x02, 0xfb, 0xf9, 0x08, 0x12, 0xf4, 0xfc,
  0xfe, 0x00, 0xf7, 0xff, 0xfe, 0x02, 0xf6, 0x08, 0x08, 0xff, 0x13, 0x07,
  0x20, 0x08, 0x04, 0xf9, 0xfd, 0xef, 0xe8, 0xff, 0xfc, 0xf8, 0x01, 0x02,
  0x00, 0xf9, 0xf6, 0x04, 0x09, 0x01, 0x0a, 0xfa, 0x00, 0xf8, 0xfe, 0xfa,
  0xfa, 0xe9, 0x00, 0x07, 0x09, 0xfd, 0xfe, 0xf8, 0x00, 0xfb, 0xff, 0xfa,
  0xfc, 0x01, 0x06, 0x08, 0xfe, 0x07, 0xf5, 0xff, 0xf7, 0xf6, 0xf9, 0xf8,
  0xf5, 0xf5, 0xf8, 0x01, 0x0b, 0xfc, 0xfc, 0xfd, 0xf8, 0xf9, 0x07, 0x04,
  0x0f, 0xfa, 0x01, 0xf7, 0x00, 0x07, 0xe8, 0xfd, 0x02, 0x08, 0x04, 0x08,
  0x03, 0x07, 0x00, 0x01, 0xff, 0xff, 0x00, 0x04, 0xd6, 0x08, 0xfe, 0x0a,
  0x02, 0xea, 0xff, 0xf9, 0xf8, 0x08, 0xff, 0x0a, 0xf8, 0xf4, 0x02, 0x09,
  0xf9, 0xe9, 0x05, 0xfc, 0xe6, 0x06, 0xf8, 0xff, 0xf9, 0xd2, 0x03, 0xf8,
  0x0a, 0xfc, 0x00, 0x03, 0xfb, 0xf5, 0x02, 0x00, 0x04, 0x09, 0x15, 0x0a,
  0xdf, 0x01, 0x02, 0x07, 0x09, 0xf5, 0xe0, 0xf7, 0xf9, 0xf7, 0x07, 0xf6,
  0xfe, 0xf4, 0xfe, 0xfa, 0xf7, 0x0b, 0x0b, 0xfe, 0xeb, 0xf8, 0xf5, 0x07,
  0xff, 0x2d, 0x04, 0x0b, 0x04, 0xf7, 0xf5, 0x0b, 0x0e, 0xfe, 0xf5, 0x0e,
  0xfa, 0x06, 0x0a, 0xf8, 0x0c, 0x00, 0x00, 0xf7, 0xff, 0x1a, 0x05, 0x08,
  0x0a, 0xfa, 0xf5, 0xfa, 0x04, 0xf8, 0x01, 0x0b, 0x00, 0xfa, 0xfd, 0x04,
  0x01, 0xf9, 0xee, 0x00, 0xff, 0x08, 0x0f, 0xff, 0xf7, 0xf7, 0x02, 0xf9,
  0x0e, 0xf6, 0x04, 0x06, 0x04, 0xf3, 0x03, 0x0a, 0x1b, 0xfa, 0xfa, 0x06,
  0xfc, 0x31, 0x05, 0x07, 0x0a, 0xfd, 0xf3, 0xf8, 0x0b, 0xf6, 0x00, 0x04,
  0xf7, 0xf7, 0x0d, 0x07, 0x01, 0x02, 0xf1, 0x03, 0xfa, 0xff, 0x0b, 0xf7,
  0xf6, 0x02, 0x02, 0xf9, 0xf5, 0xf3, 0xfd, 0x14, 0x04, 0x01, 0x11, 0x07,
  0xe1, 0xfa, 0xf8, 0x07, 0xf7, 0x0b, 0x0b, 0x0d, 0xf8, 0x08, 0x05, 0x02,
  0x09, 0xfd, 0x09, 0x10, 0xfc, 0x06, 0x09, 0xf6, 0x07, 0xfd, 0xf0, 0xfa,
  0xfb, 0x2a, 0xf3, 0xfc, 0x07, 0x08, 0x01, 0x07, 0x05, 0x03, 0x07, 0x0f,
  0x03, 0xf3, 0x08, 0x01, 0xd1, 0x01, 0xff, 0x08, 0x09, 0x20, 0xef, 0xfd,
  0x0a, 0xf7, 0xfe, 0x03, 0x07, 0x01, 0xf5, 0x0b, 0x04, 0xfe, 0x00, 0x02,
  0xe2, 0xfd, 0xfa, 0xfa, 0xfe, 0x0b, 0x12, 0x00, 0x09, 0x03, 0x04, 0xff,
  0xfd, 0xf9, 0x01, 0xfe, 0x06, 0x09, 0x0b, 0xf8, 0xfe, 0xfc, 0xf0, 0xfc,
  0x07, 0xf3, 0x09, 0xfa, 0xf5, 0x00, 0x02, 0xff, 0xf3, 0xf7, 0x02, 0x10,
  0xff, 0xea, 0x0a, 0xf7, 0x01, 0xfb, 0xf9, 0xf6, 0x06, 0x0b, 0x07, 0x00,
  0xfc, 0xfa, 0xfe, 0xf7, 0x02, 0x00, 0xff, 0x03, 0x02, 0xf9, 0x01, 0xfe,
  0x20, 0x04, 0xf2, 0x0b, 0xf5, 0x26, 0x23, 0xfb, 0x01, 0xfb, 0xf7, 0xf5,
  0x0d, 0xfe, 0x06, 0xfa, 0xf9, 0x15, 0x00, 0x01, 0xf7, 0xfd, 0xff, 0x06,
  0xfe, 0xd9, 0x13, 0xfb, 0x06, 0xf8, 0x06, 0xf7, 0x03, 0xf6, 0x06, 0xfb,
  0xff, 0x04, 0x04, 0x03, 0x42, 0x05, 0xfc, 0xfe, 0x0a, 0xfc, 0x10, 0xf9,
  0x07, 0xfc, 0xf3, 0xfa, 0xfd, 0x02, 0x01, 0x17, 0x01, 0xf6, 0x01, 0x01,
  0xca, 0x0a, 0x05, 0x08, 0xf6, 0x07, 0x08, 0x06, 0xfc, 0x05, 0xf9, 0xfd,
  0x0b, 0x05, 0xf9, 0xfc, 0x03, 0x05, 0x0b, 0x07, 0xff, 0x02, 0xfa, 0x09,
  0xf8, 0x1a, 0x26, 0x08, 0xfa, 0x00, 0x04, 0x03, 0xff, 0x03, 0x09, 0xf9,
  0x08, 0x0f, 0x0e, 0x00, 0xc1, 0xfc, 0xfd, 0x02, 0x0a, 0xba, 0x01, 0xf8,
  0xf5, 0x0a, 0x03, 0xfc, 0x0a, 0x08, 0xfe, 0x02, 0x00, 0x07, 0x01, 0x02,
  0x0c, 0xf9, 0xf2, 0xfc, 0x05, 0x52, 0x0d, 0x0b, 0x05, 0xf8, 0xfc, 0xfd,
  0x0a, 0xfa, 0x04, 0x0c, 0x06, 0x15, 0xff, 0xfe, 0xfd, 0xfe, 0xf8, 0x03,
  0xfb, 0x04, 0x0d, 0x09, 0xf7, 0xf6, 0xf9, 0xfc, 0x12, 0xf5, 0x03, 0x00,
  0xfc, 0xfe, 0x0a, 0x0b, 0x5d, 0xf5, 0x01, 0x07, 0xfe, 0x19, 0x27, 0x04,
  0xff, 0x09, 0xfa, 0xff, 0x0d, 0xf5, 0xf9, 0x01, 0xfd, 0x00, 0x0c, 0xfa,
  0x08, 0x04, 0x00, 0x00, 0xf9, 0x18, 0x19, 0xff, 0xf5, 0xfa, 0x08, 0x07,
  0x13, 0x05, 0x09, 0xf3, 0xf5, 0x0b, 0x00, 0x06, 0xf9, 0xf7, 0xef, 0xf8,
  0xf4, 0x21, 0x09, 0x0a, 0x07, 0xfb, 0xf5, 0xff, 0x11, 0xfa, 0xfc, 0xfa,
  0xf9, 0xfa, 0x13, 0x02, 0xe5, 0x08, 0xf4, 0xf8, 0x06, 0xe8, 0xfa, 0x0b,
  0xfb, 0x06, 0xf3, 0xf5, 0x0b, 0x07, 0xfd, 0xfc, 0x05, 0xff, 0x23, 0xf6,
  0x62, 0x01, 0xf5, 0xfe, 0xfe, 0xfa, 0xe0, 0xfd, 0x02, 0x02, 0xfc, 0xfd,
  0xfd, 0xf8, 0xfd, 0x03, 0x07, 0x09, 0x13, 0x02, 0xf0, 0x06, 0x02, 0xfa,
  0x09, 0xdc, 0x0e, 0xf8, 0xfd, 0xfc, 0x03, 0xff, 0x13, 0x04, 0xfa, 0x00,
  0xfe, 0x0d, 0x11, 0xf5, 0x0a, 0xf6, 0xf7, 0x04, 0xf7, 0xf9, 0x11, 0x04,
  0x01, 0xf7, 0x02, 0x01, 0x10, 0x03, 0x05, 0x05, 0x02, 0x12, 0x08, 0xfe,
  0xf6, 0xfa, 0xfa, 0x00, 0x09, 0x12, 0x11, 0xf7, 0x04, 0x03, 0xf9, 0x02,
  0x0e, 0x05, 0xf6, 0x03, 0xf6, 0x02, 0x00, 0xf8, 0x12, 0x05, 0x02, 0xfd,
  0x08, 0xbb, 0x30, 0xf9, 0x06, 0x04, 0x05, 0xf5, 0x02, 0xf7, 0x00, 0xfc,
  0xf8, 0xfc, 0x05, 0x06, 0x22, 0x09, 0xf7, 0xf9, 0x08, 0xe7, 0x0f, 0x03,
  0x01, 0xfc, 0xf4, 0xf7, 0xfd, 0xf2, 0x02, 0x15, 0xfa, 0xfe, 0x12, 0x06,
  0x26, 0x09, 0x04, 0xf7, 0xfb, 0x37, 0xfb, 0xf8, 0x06, 0x05, 0xf9, 0xf9,
  0x03, 0xf2, 0xf9, 0x08, 0x08, 0xfe, 0x05, 0x00, 0xd9, 0xf7, 0x0b, 0xf4,
  0x0c, 0x0c, 0xf3, 0x05, 0x12, 0xfa, 0x07, 0xf2, 0x0d, 0x05, 0x00, 0x09,
  0x00, 0xe3, 0x01, 0x0b, 0x46, 0x06, 0xf8, 0x06, 0x01, 0xfd, 0x13, 0xff,
  0xf5, 0xf9, 0xf9, 0xf7, 0x09, 0x05, 0xf9, 0xf5, 0xfe, 0xea, 0xf5, 0xf9,
  0x11, 0x0b, 0x01, 0xfb, 0x04, 0x00, 0x03, 0xff, 0x02, 0x06, 0xfe, 0xf4,
  0x0d, 0xf2, 0xff, 0x03, 0xf7, 0xfd, 0xfc, 0x03, 0x24, 0xfa, 0x05, 0x06,
  0x05, 0x1e, 0xff, 0xf4, 0xf3, 0x02, 0xf5, 0xfd, 0x1a, 0xfa, 0xf3, 0x09,
  0xf9, 0xf7, 0x07, 0x00, 0xf8, 0x00, 0xff, 0xf5, 0xfd, 0xf3, 0xf4, 0xf5,
  0xfd, 0x02, 0x03, 0xf5, 0x09, 0xfa, 0x05, 0xfb, 0xf6, 0xf7, 0x05, 0xf9,
  0x02, 0xfc, 0xf0, 0x06, 0xf9, 0xc9, 0xef, 0xf5, 0xfe, 0x03, 0x07, 0xfc,
  0x05, 0x00, 0xfc, 0xfe, 0x01, 0xf8, 0x10, 0xf4, 0x13, 0xff, 0xf0, 0xf4,
  0xf3, 0xfe, 0xf7, 0xf4, 0xf3, 0xfe, 0x03, 0xfb, 0x1d, 0xff, 0x02, 0x01,
  0x02, 0xf2, 0x02, 0xfe, 0xea, 0xf5, 0xf6, 0x03, 0xf8, 0xfc, 0x0e, 0xfa,
  0xfe, 0xf9, 0x00, 0xfb, 0x01, 0xf4, 0xf3, 0x07, 0x04, 0xfb, 0xfc, 0xf6,
  0xea, 0xf7, 0xfd, 0x00, 0xfc, 0x10, 0x07, 0x06, 0x02, 0xfb, 0xf8, 0x06,
  0x04, 0x05, 0xf8, 0x07, 0x03, 0x00, 0xfd, 0x04, 0x21, 0xff, 0xf0, 0xfc,
  0xf9, 0xf2, 0x0a, 0xf4, 0xf7, 0xf7, 0xf3, 0xf3, 0x05, 0x06, 0x02, 0x0b,
  0xf4, 0xf5, 0xfe, 0xf8, 0x0b, 0x05, 0xf4, 0xfd, 0x08, 0x1e, 0x01, 0x09,
  0xfd, 0x06, 0x03, 0xf8, 0x12, 0xf5, 0xfc, 0x01, 0xf3, 0xf1, 0x10, 0x08,
  0x01, 0xf8, 0xf1, 0x08, 0x04, 0x02, 0x09, 0x09, 0xf9, 0x00, 0xf4, 0xfb,
  0x0b, 0xfd, 0xf3, 0x03, 0xf4, 0xff, 0x05, 0x06, 0x01, 0x07, 0xff, 0x00,
  0xff, 0x09, 0x01, 0xf5, 0x06, 0xf2, 0x03, 0x06, 0x0e, 0x02, 0xfc, 0x05,
  0xfb, 0xf8, 0x04, 0xf7, 0xfa, 0x08, 0xf4, 0xf9, 0x04, 0xdc, 0xfb, 0xf5,
  0xfa, 0xf6, 0xf1, 0xfc, 0x10, 0xf4, 0xf6, 0x04, 0xfe, 0x01, 0xfe, 0x03,
  0x0a, 0xfd, 0xf9, 0xf9, 0x06, 0xf9, 0x01, 0x08, 0x06, 0xfd, 0xfb, 0x04,
  0x15, 0x01, 0xfb, 0x08, 0x07, 0xfd, 0x08, 0xfb, 0x49, 0x02, 0xfb, 0x04,
  0xf3, 0xcb, 0x0c, 0x03, 0x02, 0xfb, 0xf6, 0x03, 0x03, 0xf6, 0xf4, 0x12,
  0x01, 0xf4, 0xfa, 0xfe, 0x57, 0xf9, 0xff, 0xf5, 0x00, 0xef, 0x09, 0xf4,
  0x05, 0xf7, 0xfd, 0xf6, 0xfd, 0x05, 0xff, 0xf7, 0xf3, 0xea, 0xf7, 0x02,
  0xed, 0xf4, 0xf2, 0x05, 0xf7, 0xc7, 0xf8, 0xff, 0x02, 0xf6, 0xfc, 0xf8,
  0x03, 0x02, 0x00, 0x03, 0xf3, 0xf7, 0x05, 0x03, 0xfc, 0x07, 0x03, 0x00,
  0xff, 0x1d, 0xff, 0xfe, 0x05, 0xfb, 0xf5, 0x07, 0xfb, 0x04, 0x04, 0x02,
  0xfc, 0x05, 0xfc, 0x08, 0xfb, 0xf6, 0xff, 0xf7, 0x04, 0xe1, 0x08, 0x01,
  0xf9, 0xf4, 0xff, 0x05, 0x04, 0xfa, 0xff, 0xff, 0x04, 0xf7, 0x11, 0x05,
  0x01, 0xf7, 0xfa, 0xf9, 0xf4, 0x0e, 0x06, 0xfa, 0x02, 0xff, 0x03, 0xf7,
  0x09, 0x04, 0x05, 0x01, 0xf9, 0x07, 0x02, 0xfe, 0xd6, 0xf9, 0xf5, 0xfb,
  0x00, 0xe5, 0x02, 0xf9, 0xf9, 0xfa, 0x01, 0x00, 0x04, 0xf2, 0x08, 0xfa,
  0xff, 0x04, 0x10, 0x08, 0xfc, 0x01, 0xfd, 0xf9, 0xf3, 0x15, 0xf9, 0x09,
  0x04, 0xf5, 0xf5, 0xf6, 0x00, 0x02, 0xf9, 0x02, 0xfa, 0xfc, 0x0e, 0xf5,
  0x25, 0x00, 0x04, 0xf8, 0x03, 0x0c, 0x0b, 0x05, 0xf8, 0xf4, 0xfd, 0xf5,
  0x1f, 0xf9, 0xff, 0x03, 0xf6, 0x01, 0x0c, 0xfe, 0x60, 0xf7, 0x00, 0x04,
  0x08, 0x04, 0xfe, 0x09, 0x02, 0xf7, 0xf4, 0x08, 0x0e, 0x02, 0x05, 0x0e,
  0xf4, 0x03, 0x06, 0xfc, 0x43, 0xfb, 0xf4, 0xfa, 0x05, 0x25, 0x29, 0x07,
  0xf3, 0xf7, 0xf4, 0xf8, 0x06, 0xff, 0xf5, 0x03, 0x01, 0x01, 0x0a, 0x07,
  0x25, 0x08, 0xf0, 0x06, 0xfe, 0x3a, 0x03, 0x02, 0xf9, 0x01, 0xf4, 0xfb,
  0x02, 0x02, 0xfb, 0x0a, 0x05, 0xfc, 0x0b, 0xfb, 0xfd, 0x03, 0xff, 0xfc,
  0x02, 0xc5, 0x12, 0xfe, 0x05, 0x05, 0xf3, 0x01, 0x0e, 0x00, 0xff, 0x0b,
  0xfd, 0xfd, 0x06, 0x07, 0xf5, 0x02, 0xfc, 0xf3, 0xfc, 0xa3, 0x17, 0xf5,
  0x01, 0xfb, 0x05, 0xff, 0xf1, 0x03, 0xf9, 0xf2, 0x05, 0xf7, 0x03, 0x06,
  0xda, 0xf6, 0x02, 0xf8, 0xfb, 0xed, 0xf8, 0x00, 0x01, 0xfc, 0xfb, 0xfe,
  0x15, 0xf9, 0xff, 0x07, 0xf3, 0xf7, 0xff, 0xf3, 0x21, 0x01, 0x06, 0x07,
  0x07, 0x01, 0x05, 0xf5, 0xfd, 0xf7, 0xf6, 0x04, 0x05, 0x03, 0x00, 0xf9,
  0x01, 0x00, 0x12, 0xf3, 0xe3, 0xfd, 0xff, 0x03, 0xf5, 0xf8, 0xf9, 0xfd,
  0xf6, 0x03, 0xf6, 0x02, 0x09, 0x01, 0x06, 0x03, 0x07, 0x01, 0x00, 0xf5,
  0x35, 0xf8, 0xf5, 0x07, 0x03, 0x14, 0xfb, 0xf4, 0x06, 0xf3, 0x05, 0x06,
  0x08, 0x02, 0x02, 0x05, 0x02, 0x00, 0x07, 0xf6, 0x05, 0xf4, 0xfa, 0x07,
  0xf3, 0x10, 0xfe, 0xf6, 0xff, 0xf6, 0xf5, 0x06, 0x0c, 0x05, 0xf2, 0x09,
  0x05, 0xfa, 0x05, 0xf9, 0x03, 0xfa, 0x00, 0x00, 0xf6, 0x0a, 0xe9, 0x04,
  0x06, 0xf5, 0xf9, 0x07, 0x0a, 0xfa, 0xf9, 0x03, 0xfe, 0x05, 0x08, 0xf9,
  0x36, 0xfb, 0xff, 0xf7, 0xf8, 0x46, 0x03, 0xf6, 0x05, 0xf2, 0x02, 0xff,
  0x09, 0xf5, 0xfd, 0xfc, 0x02, 0xf8, 0xff, 0x05, 0x02, 0xf9, 0xf5, 0x07,
  0x00, 0x45, 0x0e, 0xf8, 0xf6, 0x07, 0xf3, 0x05, 0x0e, 0xfc, 0xf6, 0x12,
  0xff, 0x0d, 0x0b, 0xf7, 0x0c, 0xf2, 0x05, 0x08, 0xf5, 0x2c, 0x16, 0xfa,
  0xf9, 0x01, 0xf3, 0x03, 0x03, 0xf6, 0xfc, 0xf7, 0xfd, 0xed, 0x10, 0xf9,
  0xf9, 0x02, 0xf2, 0xfd, 0x05, 0xe5, 0x03, 0x02, 0xf9, 0xf2, 0x01, 0xf2,
  0xfb, 0xf5, 0xfe, 0xfd, 0x03, 0xff, 0x04, 0x05, 0x09, 0xff, 0xfb, 0xfb,
  0xf5, 0x36, 0x00, 0xf3, 0x06, 0xf7, 0xf5, 0xf6, 0xb2, 0xfa, 0xff, 0xff,
  0x04, 0x00, 0x00, 0x00, 0x14, 0x00, 0x00, 0x00, 0xda, 0xa7, 0x8b, 0xb2,
  0x9a, 0x22, 0xc9, 0x81, 0x55, 0xa4, 0xc0, 0x80, 0x8d, 0x7f, 0xd7, 0xa1,
  0x9c, 0x8f, 0xac, 0x97, 0xd2, 0xfa, 0xff, 0xff, 0x04, 0x00, 0x00, 0x00,
  0x50, 0x00, 0x00, 0x00, 0x00, 0x00, 0x00, 0x00, 0x00, 0x00, 0x00, 0x00,
  0x00, 0x00, 0x00, 0x00, 0x00, 0x00, 0x00, 0x00, 0x00, 0x00, 0x00, 0x00,
  0x00, 0x00, 0x00, 0x00, 0x00, 0x00, 0x00, 0x00, 0x00, 0x00, 0x00, 0x00,
  0x00, 0x00, 0x00, 0x00, 0x00, 0x00, 0x00, 0x00, 0x00, 0x00, 0x00, 0x00,
  0x00, 0x00, 0x00, 0x00, 0x00, 0x00, 0x00, 0x00, 0x00, 0x00, 0x00, 0x00,
  0x00, 0x00, 0x00, 0x00, 0x00, 0x00, 0x00, 0x00, 0x00, 0x00, 0x00, 0x00,
  0x00, 0x00, 0x00, 0x00, 0x00, 0x00, 0x00, 0x00, 0x00, 0x00, 0x00, 0x00,
  0x2e, 0xfb, 0xff, 0xff, 0x04, 0x00, 0x00, 0x00, 0x20, 0x03, 0x00, 0x00,
  0xfa, 0x94, 0xe9, 0x8e, 0xb6, 0xcb, 0xe0, 0xcf, 0xe5, 0x2a, 0x13, 0xe5,
  0x92, 0xbe, 0x14, 0xda, 0x5b, 0xc8, 0x2c, 0x01, 0x25, 0xfb, 0x87, 0x03,
  0xe6, 0x5e, 0xb3, 0x35, 0x03, 0x00, 0x81, 0xeb, 0xf2, 0xd8, 0x17, 0xe6,
  0xc0, 0xee, 0x91, 0x05, 0xed, 0xbd, 0x08, 0x16, 0x28, 0xe1, 0x15, 0xc8,
  0xc8, 0xe8, 0x34, 0x2a, 0xd7, 0x06, 0x14, 0xa7, 0xe5, 0xf6, 0x2f, 0x27,
  0xfe, 0x97, 0xc5, 0xca, 0xd7, 0x81, 0x2b, 0x21, 0x1d, 0xab, 0xe1, 0xee,
  0xf1, 0xf1, 0x2a, 0x0e, 0x3a, 0xa8, 0xac, 0xda, 0x32, 0xf3, 0x93, 0x25,
  0x2f, 0xce, 0xce, 0xb9, 0x21, 0xdd, 0x1b, 0x1c, 0xd5, 0x35, 0x81, 0xf2,
  0xb3, 0xfc, 0xe8, 0xac, 0x82, 0xf2, 0x00, 0xf5, 0x38, 0xbc, 0x9a, 0x1f,
  0x94, 0x9b, 0x1b, 0xab, 0xbf, 0xfc, 0xc8, 0xc8, 0x2e, 0x19, 0x12, 0xf6,
  0x93, 0x32, 0xbe, 0xc1, 0xed, 0x7d, 0xf2, 0x4b, 0x18, 0x81, 0x24, 0x3f,
  0xde, 0x1e, 0xb7, 0xfc, 0xbb, 0xae, 0xe2, 0x30, 0x8b, 0x47, 0xe1, 0x8b,
  0x13, 0x26, 0xac, 0x3e, 0x07, 0xd2, 0xc0, 0xb7, 0xd7, 0xb3, 0xa3, 0x02,
  0x1c, 0xfc, 0xb6, 0xd2, 0x0d, 0x39, 0x3d, 0x29, 0x28, 0xf0, 0x3d, 0xe0,
  0x9d, 0x8c, 0xae, 0x3c, 0x27, 0x9b, 0x81, 0xc9, 0x95, 0xbd, 0x09, 0xf1,
  0xe2, 0x06, 0xe4, 0xd9, 0xd9, 0xb8, 0x96, 0xed, 0x39, 0xf5, 0xc5, 0xfd,
  0x39, 0x35, 0x0c, 0x00, 0x2b, 0xed, 0xb9, 0xd7, 0x52, 0x01, 0xab, 0x65,
  0x2d, 0x01, 0x16, 0xc6, 0x04, 0x11, 0x0f, 0x65, 0x4f, 0x02, 0xd4, 0xe6,
  0x1e, 0xb0, 0x37, 0x3e, 0xf8, 0x9d, 0x75, 0x9d, 0xc3, 0x6c, 0x51, 0x60,
  0xa7, 0xa6, 0x81, 0x3f, 0x9d, 0x72, 0x51, 0xbd, 0xf4, 0x20, 0xd6, 0xf9,
  0x3a, 0xf3, 0x0b, 0xfc, 0xed, 0x5d, 0x4a, 0xc1, 0xeb, 0xd6, 0x1b, 0xd2,
  0x81, 0xe6, 0xfa, 0xc3, 0x96, 0x05, 0xaa, 0xc7, 0x1e, 0xcd, 0x26, 0xda,
  0x36, 0xb1, 0xb1, 0xee, 0xd1, 0x94, 0xe3, 0xbb, 0xf0, 0xf5, 0x0e, 0x9c,
  0x3a, 0xcd, 0x2c, 0x37, 0x17, 0x1e, 0x39, 0x14, 0xc0, 0xc7, 0x97, 0x23,
  0x15, 0x8e, 0xb4, 0x13, 0x0d, 0xfb, 0xbd, 0x1a, 0xf4, 0x98, 0xe6, 0xf4,
  0xf8, 0xf8, 0xc3, 0xc4, 0xa7, 0x48, 0x1b, 0x9a, 0xe8, 0x3c, 0x2f, 0xfd,
  0xbd, 0x26, 0xfb, 0x09, 0x14, 0x25, 0xfa, 0x81, 0xdf, 0x2c, 0xeb, 0x81,
  0xff, 0x60, 0x2b, 0x68, 0xb5, 0xd0, 0xa0, 0x28, 0x07, 0x1f, 0xcf, 0xd9,
  0x9c, 0xc3, 0xd5, 0xe1, 0x06, 0x4d, 0xb1, 0xee, 0xa2, 0x12, 0xc9, 0xd4,
  0x1f, 0xbb, 0x2f, 0x1e, 0xec, 0xb0, 0xe0, 0x1c, 0x11, 0x43, 0x95, 0x3a,
  0xe6, 0x2a, 0x29, 0x28, 0x25, 0xbb, 0x38, 0xa3, 0x14, 0xf3, 0x3a, 0xe0,
  0x1d, 0xac, 0x1a, 0x15, 0x90, 0xb2, 0xa0, 0x05, 0x04, 0xab, 0x89, 0xf1,
  0x42, 0x81, 0xd1, 0x0f, 0xd0, 0xa3, 0x12, 0x1b, 0xa6, 0xff, 0xc9, 0x23,
  0xd1, 0x13, 0xe1, 0xdf, 0xc6, 0x91, 0xbf, 0xb1, 0xe6, 0xd7, 0x39, 0xef,
  0xd2, 0x81, 0xe5, 0x51, 0xe4, 0xd3, 0xd1, 0xe2, 0x45, 0xce, 0x3e, 0xec,
  0xcd, 0xdb, 0x20, 0x1a, 0x04, 0x21, 0xda, 0x4c, 0xed, 0xc5, 0xb3, 0x2f,
  0x3d, 0xc7, 0x4a, 0x36, 0xae, 0x8a, 0xba, 0xa9, 0x0e, 0xe7, 0x8c, 0x81,
  0xac, 0xf6, 0x10, 0xc3, 0xf3, 0xc8, 0x19, 0xd6, 0x09, 0xae, 0x8e, 0x18,
  0x88, 0x4e, 0xf8, 0x3d, 0xa5, 0xde, 0xa8, 0xae, 0xe1, 0xb7, 0x39, 0x01,
  0xad, 0xf4, 0xf3, 0xed, 0x2b, 0xef, 0xc9, 0xc8, 0xef, 0x38, 0xe1, 0x36,
  0x99, 0x07, 0xc5, 0xf7, 0x1f, 0x9f, 0xc1, 0xce, 0xa3, 0x0b, 0xc0, 0x0a,
  0x0d, 0x33, 0xd9, 0xfa, 0x30, 0xb1, 0x08, 0x28, 0x8a, 0xab, 0xbd, 0x68,
  0x85, 0xdc, 0xe0, 0x89, 0xf4, 0xdf, 0xc6, 0x3d, 0xd1, 0xec, 0xac, 0x16,
  0x86, 0x0f, 0x30, 0x81, 0xf3, 0xc1, 0x36, 0xd6, 0xdf, 0x30, 0x62, 0x34,
  0x36, 0xdb, 0xb8, 0xd6, 0xb9, 0x1d, 0xfc, 0x0d, 0xe3, 0xc9, 0x19, 0x29,
  0x07, 0xc4, 0x25, 0xd4, 0x81, 0x4c, 0x53, 0xc9, 0x83, 0x0f, 0xe9, 0x90,
  0x96, 0xc4, 0x15, 0xbe, 0x17, 0x14, 0xdb, 0xc6, 0x10, 0x30, 0xd6, 0xf6,
  0xee, 0xce, 0xdc, 0x4c, 0x60, 0xe9, 0xe2, 0xd5, 0xb4, 0x29, 0xc7, 0xfc,
  0x2b, 0xeb, 0xf9, 0x1d, 0x25, 0xa4, 0x7f, 0x28, 0xa7, 0xcd, 0x54, 0x97,
  0x02, 0x52, 0x5d, 0xca, 0xd1, 0xa4, 0x10, 0xe1, 0x4a, 0x0a, 0xcb, 0x47,
  0x34, 0x3e, 0x25, 0xf1, 0xf6, 0x11, 0xf4, 0xe5, 0xb4, 0xfb, 0xdf, 0x12,
  0xa1, 0xd0, 0xa1, 0xfb, 0xc0, 0xc1, 0x2c, 0x93, 0x17, 0x8f, 0xb4, 0x0a,
  0x00, 0xd5, 0x08, 0xd6, 0x12, 0x9c, 0x81, 0xf6, 0xbf, 0xb9, 0xf1, 0x49,
  0x0c, 0xd0, 0x04, 0x1e, 0xb8, 0xed, 0x02, 0x2f, 0x2f, 0x9e, 0x4a, 0xaa,
  0x99, 0x98, 0xf0, 0x9c, 0xb8, 0x34, 0xc1, 0xd3, 0x49, 0xf5, 0xf5, 0xb2,
  0x5c, 0xdc, 0x9d, 0xa7, 0xee, 0x9a, 0x81, 0xb3, 0x32, 0x2d, 0x0e, 0xf0,
  0x3c, 0x81, 0x14, 0xec, 0xfe, 0x87, 0xf3, 0xa7, 0xb3, 0x42, 0x32, 0xb6,
  0x09, 0xf7, 0xf9, 0xf7, 0x24, 0xad, 0xc8, 0x9a, 0x16, 0xd6, 0x07, 0x00,
  0xc2, 0x9c, 0xc5, 0x05, 0xf9, 0xe8, 0xdd, 0x28, 0x15, 0xc2, 0x3a, 0xa3,
  0xad, 0xd4, 0x20, 0xf2, 0x81, 0x1d, 0xb9, 0xfa, 0x35, 0xd8, 0x25, 0x9c,
  0xe4, 0x12, 0xa7, 0x82, 0x81, 0xa6, 0x4b, 0x30, 0x94, 0xe6, 0x64, 0xe5,
  0xaf, 0xd8, 0xa4, 0xf3, 0xc2, 0xa0, 0x2f, 0xbf, 0xb4, 0xa0, 0x47, 0x4a,
  0x4f, 0xb3, 0xb8, 0xf7, 0x10, 0xe5, 0x71, 0x20, 0x43, 0x4a, 0x3a, 0xc1,
  0x26, 0xed, 0xf8, 0xa2, 0x39, 0xda, 0x26, 0x9b, 0x39, 0xa9, 0x05, 0xe3,
  0x38, 0x8f, 0x28, 0xa5, 0xc7, 0xe7, 0x27, 0xf4, 0x43, 0x81, 0x41, 0xc8,
  0xe3, 0x60, 0x44, 0x02, 0x06, 0x27, 0x84, 0xf0, 0xc4, 0x0f, 0x35, 0xe0,
  0x82, 0xb2, 0xfc, 0xc6, 0xc1, 0x9e, 0xee, 0xe3, 0x5a, 0xfe, 0xff, 0xff,
  0x04, 0x00, 0x00, 0x00, 0x50, 0x00, 0x00, 0x00, 0x5d, 0x00, 0x00, 0x00,
  0xad, 0xfe, 0xff, 0xff, 0xa0, 0xff, 0xff, 0xff, 0x61, 0x00, 0x00, 0x00,
  0x68, 0xff, 0xff, 0xff, 0x15, 0x01, 0x00, 0x00, 0x63, 0xff, 0xff, 0xff,
  0x82, 0xff, 0xff, 0xff, 0x2a, 0xff, 0xff, 0xff, 0xd4, 0x00, 0x00, 0x00,
  0x11, 0x00, 0x00, 0x00, 0xbc, 0xff, 0xff, 0xff, 0xd8, 0xff, 0xff, 0xff,
  0x23, 0xff, 0xff, 0xff, 0x91, 0xff, 0xff, 0xff, 0x2c, 0xff, 0xff, 0xff,
  0x76, 0xff, 0xff, 0xff, 0x2a, 0xff, 0xff, 0xff, 0x42, 0xff, 0xff, 0xff,
  0x36, 0x00, 0x00, 0x00, 0xb6, 0xfe, 0xff, 0xff, 0x04, 0x00, 0x00, 0x00,
  0xa0, 0x00, 0x00, 0x00, 0x39, 0x6d, 0xd9, 0xbb, 0x81, 0xe2, 0xae, 0x59,
  0xda, 0xd4, 0x31, 0xaa, 0xbd, 0xd7, 0x81, 0xd5, 0xe6, 0xac, 0x51, 0xfd,
  0x7f, 0x11, 0xba, 0xb3, 0xb0, 0x37, 0xbd, 0x5d, 0x81, 0x33, 0x25, 0x9f,
  0x81, 0x08, 0x26, 0xea, 0xbb, 0x9e, 0x15, 0x07, 0x7f, 0x26, 0x22, 0xf4,
  0xe5, 0xcf, 0xc0, 0x48, 0x2b, 0x0d, 0xfa, 0x8e, 0x81, 0x10, 0xfb, 0xaf,
  0x7f, 0xb9, 0xd8, 0x0a, 0x3f, 0x8e, 0xf7, 0x25, 0x81, 0x3a, 0x29, 0x5d,
  0x1a, 0x55, 0x58, 0x55, 0xa0, 0x09, 0xd0, 0x4e, 0x31, 0x72, 0xae, 0x7f,
  0x81, 0x7b, 0x1f, 0xd8, 0xc2, 0x1a, 0xb5, 0x42, 0x54, 0xb7, 0xf2, 0xd6,
  0x2c, 0xd9, 0xbb, 0x81, 0x81, 0x3c, 0x49, 0xfb, 0xac, 0xa9, 0xe6, 0x56,
  0xec, 0xe5, 0x0d, 0x9d, 0x81, 0xbe, 0x0e, 0x28, 0x21, 0x1c, 0xf0, 0xf1,
  0x81, 0x50, 0x0d, 0xbd, 0x45, 0x93, 0x38, 0x18, 0x37, 0x2b, 0xf1, 0x81,
  0x81, 0x2f, 0xe7, 0x3d, 0x49, 0x09, 0xf9, 0x25, 0x12, 0x4f, 0xdc, 0xb0,
  0x81, 0xee, 0xe1, 0x03, 0x00, 0xb5, 0x1d, 0xfe, 0x81, 0xc2, 0x40, 0x94,
  0xcc, 0x45, 0xe7, 0x7f, 0x47, 0xfe, 0x77, 0x64, 0x62, 0xff, 0xff, 0xff,
  0x04, 0x00, 0x00, 0x00, 0x08, 0x00, 0x00, 0x00, 0xff, 0xff, 0xff, 0xff,
  0x20, 0x03, 0x00, 0x00, 0x76, 0xff, 0xff, 0xff, 0x04, 0x00, 0x00, 0x00,
  0x0c, 0x00, 0x00, 0x00, 0xff, 0xff, 0xff, 0xff, 0x14, 0x00, 0x00, 0x00,
  0x14, 0x00, 0x00, 0x00, 0x8e, 0xff, 0xff, 0xff, 0x04, 0x00, 0x00, 0x00,
  0x08, 0x00, 0x00, 0x00, 0x00, 0x00, 0x00, 0x00, 0x00, 0x00, 0x00, 0x00,
  0xa2, 0xff, 0xff, 0xff, 0x04, 0x00, 0x00, 0x00, 0x04, 0x00, 0x00, 0x00,
  0x02, 0x00, 0x00, 0x00, 0xb2, 0xff, 0xff, 0xff, 0x04, 0x00, 0x00, 0x00,
  0x18, 0x00, 0x00, 0x00, 0x00, 0x00, 0x00, 0x00, 0x00, 0x00, 0x00, 0x00,
  0x02, 0x00, 0x00, 0x00, 0x00, 0x00, 0x00, 0x00, 0x00, 0x00, 0x00, 0x00,
  0x00, 0x00, 0x00, 0x00, 0xd6, 0xff, 0xff, 0xff, 0x04, 0x00, 0x00, 0x00,
  0x0c, 0x00, 0x00, 0x00, 0xff, 0xff, 0xff, 0xff, 0x28, 0x00, 0x00, 0x00,
  0x14, 0x00, 0x00, 0x00, 0xee, 0xff, 0xff, 0xff, 0x04, 0x00, 0x00, 0x00,
  0x04, 0x00, 0x00, 0x00, 0xfd, 0xff, 0xff, 0xff, 0x00, 0x00, 0x06, 0x00,
  0x08, 0x00, 0x04, 0x00, 0x06, 0x00, 0x00, 0x00, 0x04, 0x00, 0x00, 0x00,
  0x18, 0x00, 0x00, 0x00, 0x00, 0x00, 0x00, 0x00, 0x00, 0x00, 0x00, 0x00,
  0x01, 0x00, 0x00, 0x00, 0x00, 0x00, 0x00, 0x00, 0x00, 0x00, 0x00, 0x00,
  0x00, 0x00, 0x00, 0x00, 0xd4, 0xeb, 0xff, 0xff, 0xd8, 0xeb, 0xff, 0xff,
  0x0f, 0x00, 0x00, 0x00, 0x4d, 0x4c, 0x49, 0x52, 0x20, 0x43, 0x6f, 0x6e,
  0x76, 0x65, 0x72, 0x74, 0x65, 0x64, 0x2e, 0x00, 0x01, 0x00, 0x00, 0x00,
  0x14, 0x00, 0x00, 0x00, 0x00, 0x00, 0x0e, 0x00, 0x18, 0x00, 0x14, 0x00,
  0x10, 0x00, 0x0c, 0x00, 0x08, 0x00, 0x04, 0x00, 0x0e, 0x00, 0x00, 0x00,
  0x14, 0x00, 0x00, 0x00, 0x1c, 0x00, 0x00, 0x00, 0xfc, 0x02, 0x00, 0x00,
  0x00, 0x03, 0x00, 0x00, 0x04, 0x03, 0x00, 0x00, 0x04, 0x00, 0x00, 0x00,
  0x6d, 0x61, 0x69, 0x6e, 0x00, 0x00, 0x00, 0x00, 0x0d, 0x00, 0x00, 0x00,
  0xb4, 0x02, 0x00, 0x00, 0x70, 0x02, 0x00, 0x00, 0x0c, 0x02, 0x00, 0x00,
  0xe4, 0x01, 0x00, 0x00, 0xa8, 0x01, 0x00, 0x00, 0x7c, 0x01, 0x00, 0x00,
  0x48, 0x01, 0x00, 0x00, 0xf8, 0x00, 0x00, 0x00, 0xd0, 0x00, 0x00, 0x00,
  0xa4, 0x00, 0x00, 0x00, 0x64, 0x00, 0x00, 0x00, 0x3c, 0x00, 0x00, 0x00,
  0x04, 0x00, 0x00, 0x00, 0xce, 0xfd, 0xff, 0xff, 0x14, 0x00, 0x00, 0x00,
  0x00, 0x00, 0x00, 0x08, 0x10, 0x00, 0x00, 0x00, 0x14, 0x00, 0x00, 0x00,
  0x07, 0x00, 0x00, 0x00, 0x7c, 0xec, 0xff, 0xff, 0x01, 0x00, 0x00, 0x00,
  0x1c, 0x00, 0x00, 0x00, 0x03, 0x00, 0x00, 0x00, 0x1b, 0x00, 0x00, 0x00,
  0x0e, 0x00, 0x00, 0x00, 0x0f, 0x00, 0x00, 0x00, 0x82, 0xfe, 0xff, 0xff,
  0x0c, 0x00, 0x00, 0x00, 0x10, 0x00, 0x00, 0x00, 0x03, 0x00, 0x00, 0x00,
  0x01, 0x00, 0x00, 0x00, 0x1b, 0x00, 0x00, 0x00, 0x02, 0x00, 0x00, 0x00,
  0x1a, 0x00, 0x00, 0x00, 0x08, 0x00, 0x00, 0x00, 0x26, 0xfe, 0xff, 0xff,
  0x1c, 0x00, 0x00, 0x00, 0x00, 0x00, 0x00, 0x0b, 0x1c, 0x00, 0x00, 0x00,
  0x20, 0x00, 0x00, 0x00, 0x06, 0x00, 0x00, 0x00, 0x00, 0x00, 0x06, 0x00,
  0x08, 0x00, 0x07, 0x00, 0x06, 0x00, 0x00, 0x00, 0x00, 0x00, 0x00, 0x01,
  0x01, 0x00, 0x00, 0x00, 0x1a, 0x00, 0x00, 0x00, 0x02, 0x00, 0x00, 0x00,
  0x19, 0x00, 0x00, 0x00, 0x0d, 0x00, 0x00, 0x00, 0xe2, 0xfe, 0xff, 0xff,
  0x0c, 0x00, 0x00, 0x00, 0x10, 0x00, 0x00, 0x00, 0x05, 0x00, 0x00, 0x00,
  0x01, 0x00, 0x00, 0x00, 0x19, 0x00, 0x00, 0x00, 0x03, 0x00, 0x00, 0x00,
  0x18, 0x00, 0x00, 0x00, 0x05, 0x00, 0x00, 0x00, 0x06, 0x00, 0x00, 0x00,
  0x0a, 0xff, 0xff, 0xff, 0x0c, 0x00, 0x00, 0x00, 0x10, 0x00, 0x00, 0x00,
  0x03, 0x00, 0x00, 0x00, 0x01, 0x00, 0x00, 0x00, 0x18, 0x00, 0x00, 0x00,
  0x02, 0x00, 0x00, 0x00, 0x17, 0x00, 0x00, 0x00, 0x07, 0x00, 0x00, 0x00,
  0xae, 0xfe, 0xff, 0xff, 0x20, 0x00, 0x00, 0x00, 0x00, 0x00, 0x00, 0x01,
  0x28, 0x00, 0x00, 0x00, 0x2c, 0x00, 0x00, 0x00, 0x02, 0x00, 0x00, 0x00,
  0x00, 0x00, 0x0a, 0x00, 0x10, 0x00, 0x0f, 0x00, 0x08, 0x00, 0x04, 0x00,
  0x0a, 0x00, 0x00, 0x00, 0x01, 0x00, 0x00, 0x00, 0x01, 0x00, 0x00, 0x00,
  0x00, 0x00, 0x00, 0x01, 0x01, 0x00, 0x00, 0x00, 0x17, 0x00, 0x00, 0x00,
  0x03, 0x00, 0x00, 0x00, 0x16, 0x00, 0x00, 0x00, 0x0b, 0x00, 0x00, 0x00,
  0x0c, 0x00, 0x00, 0x00, 0xfa, 0xfe, 0xff, 0xff, 0x14, 0x00, 0x00, 0x00,
  0x00, 0x00, 0x00, 0x34, 0x10, 0x00, 0x00, 0x00, 0x14, 0x00, 0x00, 0x00,
  0x01, 0x00, 0x00, 0x00, 0xa8, 0xed, 0xff, 0xff, 0x01, 0x00, 0x00, 0x00,
  0x16, 0x00, 0x00, 0x00, 0x02, 0x00, 0x00, 0x00, 0x15, 0x00, 0x00, 0x00,
  0x02, 0x00, 0x00, 0x00, 0xaa, 0xff, 0xff, 0xff, 0x0c, 0x00, 0x00, 0x00,
  0x10, 0x00, 0x00, 0x00, 0x04, 0x00, 0x00, 0x00, 0x01, 0x00, 0x00, 0x00,
  0x15, 0x00, 0x00, 0x00, 0x03, 0x00, 0x00, 0x00, 0x14, 0x00, 0x00, 0x00,
  0x05, 0x00, 0x00, 0x00, 0x06, 0x00, 0x00, 0x00, 0x12, 0xff, 0xff, 0xff,
  0x10, 0x00, 0x00, 0x00, 0x00, 0x00, 0x00, 0x16, 0x0c, 0x00, 0x00, 0x00,
  0x10, 0x00, 0x00, 0x00, 0xfc, 0xed, 0xff, 0xff, 0x01, 0x00, 0x00, 0x00,
  0x14, 0x00, 0x00, 0x00, 0x02, 0x00, 0x00, 0x00, 0x13, 0x00, 0x00, 0x00,
  0x04, 0x00, 0x00, 0x00, 0x00, 0x00, 0x0a, 0x00, 0x10, 0x00, 0x0c, 0x00,
  0x08, 0x00, 0x04, 0x00, 0x0a, 0x00, 0x00, 0x00, 0x0c, 0x00, 0x00, 0x00,
  0x10, 0x00, 0x00, 0x00, 0x03, 0x00, 0x00, 0x00, 0x01, 0x00, 0x00, 0x00,
  0x13, 0x00, 0x00, 0x00, 0x02, 0x00, 0x00, 0x00, 0x12, 0x00, 0x00, 0x00,
  0x03, 0x00, 0x00, 0x00, 0xae, 0xff, 0xff, 0xff, 0x20, 0x00, 0x00, 0x00,
  0x00, 0x00, 0x00, 0x01, 0x2c, 0x00, 0x00, 0x00, 0x30, 0x00, 0x00, 0x00,
  0x02, 0x00, 0x00, 0x00, 0x0c, 0x00, 0x14, 0x00, 0x13, 0x00, 0x0c, 0x00,
  0x08, 0x00, 0x07, 0x00, 0x0c, 0x00, 0x00, 0x00, 0x00, 0x00, 0x00, 0x01,
  0x01, 0x00, 0x00, 0x00, 0x01, 0x00, 0x00, 0x00, 0x00, 0x00, 0x00, 0x01,
  0x01, 0x00, 0x00, 0x00, 0x12, 0x00, 0x00, 0x00, 0x03, 0x00, 0x00, 0x00,
  0x11, 0x00, 0x00, 0x00, 0x09, 0x00, 0x00, 0x00, 0x0a, 0x00, 0x00, 0x00,
  0x00, 0x00, 0x0e, 0x00, 0x18, 0x00, 0x14, 0x00, 0x10, 0x00, 0x0c, 0x00,
  0x0b, 0x00, 0x04, 0x00, 0x0e, 0x00, 0x00, 0x00, 0x14, 0x00, 0x00, 0x00,
  0x00, 0x00, 0x00, 0x34, 0x10, 0x00, 0x00, 0x00, 0x14, 0x00, 0x00, 0x00,
  0x01, 0x00, 0x00, 0x00, 0xbc, 0xee, 0xff, 0xff, 0x01, 0x00, 0x00, 0x00,
  0x11, 0x00, 0x00, 0x00, 0x02, 0x00, 0x00, 0x00, 0x10, 0x00, 0x00, 0x00,
  0x02, 0x00, 0x00, 0x00, 0x00, 0x00, 0x0e, 0x00, 0x14, 0x00, 0x00, 0x00,
  0x10, 0x00, 0x0c, 0x00, 0x0b, 0x00, 0x04, 0x00, 0x0e, 0x00, 0x00, 0x00,
  0x10, 0x00, 0x00, 0x00, 0x00, 0x00, 0x00, 0x16, 0x0c, 0x00, 0x00, 0x00,
  0x10, 0x00, 0x00, 0x00, 0xf8, 0xee, 0xff, 0xff, 0x01, 0x00, 0x00, 0x00,
  0x10, 0x00, 0x00, 0x00, 0x02, 0x00, 0x00, 0x00, 0x00, 0x00, 0x00, 0x00,
  0x01, 0x00, 0x00, 0x00, 0x01, 0x00, 0x00, 0x00, 0x1c, 0x00, 0x00, 0x00,
  0x01, 0x00, 0x00, 0x00, 0x00, 0x00, 0x00, 0x00, 0x1d, 0x00, 0x00, 0x00,
  0x2c, 0x11, 0x00, 0x00, 0xc0, 0x10, 0x00, 0x00, 0x5c, 0x10, 0x00, 0x00,
  0x08, 0x10, 0x00, 0x00, 0xb4, 0x0f, 0x00, 0x00, 0x50, 0x0f, 0x00, 0x00,
  0xec, 0x0e, 0x00, 0x00, 0x98, 0x0e, 0x00, 0x00, 0x50, 0x0e, 0x00, 0x00,
  0xf8, 0x0c, 0x00, 0x00, 0xbc, 0x0b, 0x00, 0x00, 0x60, 0x0a, 0x00, 0x00,
  0x14, 0x09, 0x00, 0x00, 0xb8, 0x08, 0x00, 0x00, 0x4c, 0x08, 0x00, 0x00,
  0xf8, 0x07, 0x00, 0x00, 0x78, 0x07, 0x00, 0x00, 0xe0, 0x06, 0x00, 0x00,
  0xcc, 0x05, 0x00, 0x00, 0xfc, 0x04, 0x00, 0x00, 0x78, 0x04, 0x00, 0x00,
  0xe4, 0x03, 0x00, 0x00, 0x4c, 0x03, 0x00, 0x00, 0xc0, 0x02, 0x00, 0x00,
  0x30, 0x02, 0x00, 0x00, 0x9c, 0x01, 0x00, 0x00, 0xf8, 0x00, 0x00, 0x00,
  0x80, 0x00, 0x00, 0x00, 0x04, 0x00, 0x00, 0x00, 0x5c, 0xef, 0xff, 0xff,
  0x18, 0x00, 0x00, 0x00, 0x20, 0x00, 0x00, 0x00, 0x40, 0x00, 0x00, 0x00,
  0x1d, 0x00, 0x00, 0x00, 0x00, 0x00, 0x00, 0x09, 0x54, 0x00, 0x00, 0x00,
  0x02, 0x00, 0x00, 0x00, 0xff, 0xff, 0xff, 0xff, 0x10, 0x00, 0x00, 0x00,
  0x44, 0xef, 0xff, 0xff, 0x08, 0x00, 0x00, 0x00, 0x14, 0x00, 0x00, 0x00,
  0x01, 0x00, 0x00, 0x00, 0x8d, 0xff, 0xff, 0xff, 0xff, 0xff, 0xff, 0xff,
  0x00, 0x00, 0x00, 0x00, 0x01, 0x00, 0x00, 0x00, 0x36, 0xf0, 0x98, 0x3c,
  0x19, 0x00, 0x00, 0x00, 0x53, 0x74, 0x61, 0x74, 0x65, 0x66, 0x75, 0x6c,
  0x50, 0x61, 0x72, 0x74, 0x69, 0x74, 0x69, 0x6f, 0x6e, 0x65, 0x64, 0x43,
  0x61, 0x6c, 0x6c, 0x3a, 0x30, 0x00, 0x00, 0x00, 0x02, 0x00, 0x00, 0x00,
  0x01, 0x00, 0x00, 0x00, 0x10, 0x00, 0x00, 0x00, 0xd4, 0xef, 0xff, 0xff,
  0x18, 0x00, 0x00, 0x00, 0x20, 0x00, 0x00, 0x00, 0x3c, 0x00, 0x00, 0x00,
  0x1c, 0x00, 0x00, 0x00, 0x00, 0x00, 0x00, 0x09, 0x50, 0x00, 0x00, 0x00,
  0x02, 0x00, 0x00, 0x00, 0xff, 0xff, 0xff, 0xff, 0x20, 0x03, 0x00, 0x00,
  0xbc, 0xef, 0xff, 0xff, 0x08, 0x00, 0x00, 0x00, 0x10, 0x00, 0x00, 0x00,
  0x01, 0x00, 0x00, 0x00, 0x80, 0xff, 0xff, 0xff, 0xff, 0xff, 0xff, 0xff,
  0x01, 0x00, 0x00, 0x00, 0x12, 0x07, 0x47, 0x3c, 0x1b, 0x00, 0x00, 0x00,
  0x73, 0x65, 0x71, 0x75, 0x65, 0x6e, 0x74, 0x69, 0x61, 0x6c, 0x5f, 0x31,
  0x35, 0x2f, 0x6c, 0x61, 0x73, 0x74, 0x32, 0x2f, 0x52, 0x65, 0x73, 0x68,
  0x61, 0x70, 0x65, 0x00, 0x02, 0x00, 0x00, 0x00, 0x01, 0x00, 0x00, 0x00,
  0x20, 0x03, 0x00, 0x00, 0x48, 0xf0, 0xff, 0xff, 0x18, 0x00, 0x00, 0x00,
  0x24, 0x00, 0x00, 0x00, 0x44, 0x00, 0x00, 0x00, 0x1b, 0x00, 0x00, 0x00,
  0x00, 0x00, 0x00, 0x09, 0x78, 0x00, 0x00, 0x00, 0x03, 0x00, 0x00, 0x00,
  0xff, 0xff, 0xff, 0xff, 0x28, 0x00, 0x00, 0x00, 0x14, 0x00, 0x00, 0x00,
  0x34, 0xf0, 0xff, 0xff, 0x08, 0x00, 0x00, 0x00, 0x14, 0x00, 0x00, 0x00,
  0x01, 0x00, 0x00, 0x00, 0x80, 0xff, 0xff, 0xff, 0xff, 0xff, 0xff, 0xff,
  0x00, 0x00, 0x00, 0x00, 0x01, 0x00, 0x00, 0x00, 0x12, 0x07, 0x47, 0x3c,
